
/**
  ******************************************************************************
  * @file    network_data.c
  * @author  AST Embedded Analytics Research Platform
  * @date    Wed Jun 22 16:25:58 2022
  * @brief   AI Tool Automatic Code Generator for Embedded NN computing
  ******************************************************************************
  * @attention
  *
  * Copyright (c) 2021 STMicroelectronics.
  * All rights reserved.
  *
  * This software is licensed under terms that can be found in the LICENSE file
  * in the root directory of this software component.
  * If no LICENSE file comes with this software, it is provided AS-IS.
  ******************************************************************************
  */
#include "network_data.h"
#include "ai_platform_interface.h"

AI_API_DECLARE_BEGIN

AI_ALIGNED(32)
const ai_u64 s_network_network_weights_array_u64[ 59851 ] = {
  0x5e5f6b726d6b746eU, 0x626c81756c817865U, 0x68726f6a7472655bU, 0x6464656464635e61U,
  0x6465646365646465U, 0x6564646564646564U, 0x3475646363656463U, 0x8183347896178082U,
  0x8f1e809f018e8429U, 0x3d748c267c82416aU, 0x6465646365656478U, 0x6665646666656565U,
  0x6564666665666564U, 0x3f57374b66666566U, 0x7cc49b5b4e595a1fU, 0x3144759c857ad6a1U,
  0x3d5c4952581f3f58U, 0x63424779b7995a33U, 0x193f8affba4c012aU, 0x4874b39655303e61U,
  0x676667676665633fU, 0x6666676666646565U, 0x6768676767666667U, 0x4054976868686867U,
  0x2f8e744c6c3a4fa0U, 0x893f6b81374fa66fU, 0x7c4968614b803e66U, 0x894000093f0U,
  0xffff7c680000d3ddU, 0xd31000006932U, 0x903affff6cdbU, 0x4c2d4b4c344b4f4bU,
  0x497e4a49594b4e4aU, 0x4c224b4c394b4c4bU, 0x4ab2474c85494a4bU, 0x51ff5144914a4a53U,
  0x4a2d4b4d514c4d49U, 0x4b2b4b49524a4b4bU, 0x4a994a54584b4a4aU, 0x4b014a48224b4e4bU,
  0xffffffb3ffffffc1U, 0xffffff85000002baU, 0x1190000015bU, 0x1ffffff3cU,
  0xb2b3b3b3b3e5b3b4U, 0x40b3b3b4b3b0b3abU, 0xb3b4b2b3b3b3b3b3U, 0x39b3b5b1b3bbb3b8U,
  0xe1b3b3b3b3b4b3b3U, 0xa4b3b4b2b331b3aeU, 0xc1b310c5b3c3b3c0U, 0xb0b3bfb0b3b1b359U,
  0xadb3d5b3b3abb3a4U, 0x71b3c7b2b370b301U, 0xb6b3acb3b3b8b3efU, 0xb1b3b6b1b3afb377U,
  0xffb3c6abb3d1b308U, 0xb3b3b3b3b3b3b3b2U, 0xb1b3b0b4b3b3b3e2U, 0xb4b3b319b3b4b3b4U,
  0x8151fffffef5U, 0x3d0bffffeb61U, 0x600a0000082bU, 0x56cb00005487U,
  0x5ded0000345bU, 0x509400000318U, 0xffffe865fffff44fU, 0x4e35000009b6U,
  0x4641427846604145U, 0x4545b6424d4a4242U, 0x4541490144594158U, 0x46479141503f423fU,
  0x3e42465543474347U, 0x44442f4247404249U, 0x3c40425a45e9413eU, 0x4646ff4338494340U,
  0x4d3e462945954149U, 0x4745fe42343e4230U, 0x434244434389433eU, 0x45445b423d424256U,
  0x4041442843a74347U, 0x4443524344434345U, 0x44404071436a443eU, 0x4442624344424337U,
  0x4342422f43274343U, 0x43433c434544434bU, 0x6cffffffaf4U, 0xffffff10fffffec5U,
  0xfffffe7c00000053U, 0x30c00000511U, 0x27d000005a5U, 0x3bf000002a0U,
  0xfffffddf00000310U, 0xfffffeafU, 0x696a6b696c696c69U, 0x698b696b6666696aU,
  0x6247676a67696969U, 0x65706965686f6521U, 0x6b66696a6a69696aU, 0x6d726964906f646dU,
  0x686a666966696667U, 0x6a50696168706169U, 0x596968686c696b67U, 0x6c69696565c7696cU,
  0x696a58696e695c8eU, 0x69676961696a7868U, 0x6c68686a67696969U, 0x876769676668676aU,
  0x68686a696c696b69U, 0x698e696a6c657069U, 0x5e59696a69696868U, 0x68666968665a6878U,
  0x736c69696a696868U, 0x616f69662b63676aU, 0x696a876a5769844cU, 0x686a696d6969676aU,
  0x69675e6b67699670U, 0x6966695c69696c69U, 0x665c66747c698367U, 0x70b4691c64580169U,
  0x6d6b4861506977a2U, 0x686b694a6c6c8e6bU, 0x6b6b69696c696c69U, 0x698869686e736b69U,
  0x596b626768696865U, 0x426b6969ff776766U, 0x68686c6b76695f6eU, 0x6a646964696c686aU,
  0x6757686b6a696667U, 0x7c6b69656a616164U, 0x6667696a6b696b69U, 0x688a69696a6b6a68U,
  0x6a6bbe6481695a68U, 0x6b66697a68655e6aU, 0x52676d6c6a696a6bU, 0x6e5d6983f432736aU,
  0x6b696a696c696c6aU, 0x698e696b65606c6aU, 0x69685d6b9469506bU, 0x6967696f69695c69U,
  0x686a65667e69516aU, 0x6a70696d696b6769U, 0x686a6f816769646cU, 0x6969696969686869U,
  0x47676a696f69696bU, 0x6b77696b6f716965U, 0x69676d623769b14eU, 0x68656956696a7269U,
  0x6c6b6b666b69696aU, 0xe16869696d68696aU, 0x65676e6b6e696b6aU, 0x698e696d65716768U,
  0x6a67686868696a66U, 0x6a68696d6b6a6868U, 0x835f686d69696a69U, 0x686c69676a8e6772U,
  0x7265676968696569U, 0x6948696171646469U, 0x26a1000000a9U, 0x1a77fffff8acU,
  0xffffff40fffff9f1U, 0x2d00000b5cU, 0x1e5700001dc6U, 0x5460000007aU,
  0xfffffd8700002e78U, 0xffffba16fffffbdfU, 0x1ef7000014dbU, 0xfffff7e700000213U,
  0x4d4ffffe4f2U, 0xa2100000161U, 0x14f200000434U, 0xfffffc2500000a0fU,
  0x1acafffffefeU, 0x1f88ffffde91U, 0x2b81747c9b7d7c7fU, 0x7f637b7e787a797dU,
  0xa87ecf837c8a8283U, 0x817e857d797b6f54U, 0xca8990808771877aU, 0x87ff7a808885729cU,
  0x46852d7782a7767aU, 0x778b8379737a9099U, 0x8279717e7b7c7c7cU, 0x7d017f7b76757c7cU,
  0x8c75797e797e8179U, 0x7c7d7c807f7f7e8aU, 0x457d8e7f6f7d7e76U, 0x7b797b7f898a817dU,
  0x95892c78816e8095U, 0x8c7d82797c7b88a1U, 0xad7d8b7571887d92U, 0x77787b808789857cU,
  0x5885c282835b807aU, 0x767e81747b7a6f67U, 0x847d777d7b7d7d7aU, 0x7c967e7c76787e7bU,
  0x8a7b847d7a7c806aU, 0x7b7d7b847e7e7a6eU, 0x7b7c707d787d7d7bU, 0x7d7e7f7b76737e7dU,
  0x7973807c7a7d7c81U, 0x7d7d787e7e7f7e82U, 0x7d7d757d797f7c7aU, 0x7b7a7d7c76767e7bU,
  0x8c7a7d7d7b787f7aU, 0x7c7b78827d7f7a77U, 0x7f7d7f7e7f7c7d7eU, 0x7d807d7d817f7d7dU,
  0x727d7b7d7e7d7b79U, 0x7d7d787c7d7c7f7eU, 0x92000002ccU, 0x3000000178U,
  0xffffffee0000055fU, 0x488fffffd94U, 0x1a8fffff124U, 0x19affffffffU,
  0x27500000093U, 0xd2000005ccU, 0xfffffd9f00000084U, 0x2060000009eU,
  0x5b6000006b0U, 0xffffff4a00000073U, 0x1800000004U, 0x30400000287U,
  0xfffffbd00000061cU, 0x322ffffffa5U, 0x5f6461845f616c60U, 0x6153606a5f606663U,
  0x6363606363656268U, 0x4c5d698663656662U, 0x61645f6576636137U, 0x63617c9a69566463U,
  0x645660605f615f61U, 0x736d665c6d7b6360U, 0x6161625162616068U, 0x616a5c5f5f626064U,
  0x5d636161625b655dU, 0x605d5f4461606061U, 0x606e606f3a706142U, 0x5b5e5f5f5d5f5563U,
  0x5f5e635c6389686dU, 0x75634c69615c6361U, 0x615c63655e666866U, 0x5163636163634d6aU,
  0x6361626064526b63U, 0x5f6a6a65635f6962U, 0x6c775c69555e7164U, 0x7162606e5b5b6b70U,
  0x6165605b655e2049U, 0x7b6d354962626661U, 0x6062615e60615b62U, 0x61615f5f61606157U,
  0x616261616362635eU, 0x6159666563606061U, 0x765d606162595b70U, 0x6263686a625e6160U,
  0x605f6460645e5f5dU, 0x8d5f675062636062U, 0x635c626b5c5ee45cU, 0x62605c5e5f6063ffU,
  0x5e60616166584d65U, 0x6cc7524b50695f60U, 0x626461695b825f69U, 0x3d6462616060205dU,
  0x625e65625d575f5eU, 0x675f585762626b61U, 0x626456626360625aU, 0x6161716878746162U,
  0x664862626a605f5dU, 0x6262626660446162U, 0x6459608258465063U, 0x636c61646260645cU,
  0x6162695560626164U, 0x6769686062616e60U, 0x4d6261525b62573eU, 0x5e6661655f616054U,
  0x656160675f616261U, 0x405f6953605e5d60U, 0x61635c6663625f61U, 0x606164646359615dU,
  0x6a65606364605c75U, 0x5d61576260646060U, 0x5d604f685b66605dU, 0x5f5c535901555e60U,
  0x516b68636d685f77U, 0x4f646e91615a5f6aU, 0x5e5b5f5d6268604cU, 0x5a576263615f4e56U,
  0x62605260605a5a67U, 0x5854676b63618061U, 0x617062615f617162U, 0x6460616464616476U,
  0x665e62645d63685cU, 0x606f6163585f6361U, 0x61825f5c5c565860U, 0x5f616262605e5f55U,
  0x5f636060625c6a66U, 0x62565f6043656063U, 0x5361622d59615854U, 0x626a63675d605c59U,
  0x655f5e655e635964U, 0x5b7966605d5d5d61U, 0x6262636834576057U, 0x6463605861647561U,
  0x5f5d616261957065U, 0x6a62787663635f61U, 0x6a6262656d616173U, 0x635d61636464625fU,
  0x6260615d61506471U, 0x635e687b61626261U, 0x60735f6066695f64U, 0x65616566605e6760U,
  0x605e61605f685e67U, 0x60615e5d57626261U, 0x616381626060605eU, 0x61615f655e856060U,
  0x677361617760605aU, 0x626158636269615eU, 0x5e5e615268636280U, 0x5d50615d5f615e5aU,
  0x61607754604a5c61U, 0x6a4e5f5c635f6b61U, 0x605b5f655f61605fU, 0x61606260605e6060U,
  0x64626061615f615fU, 0x6160626162636091U, 0x685e623a684d564eU, 0x65665f645f626360U,
  0x5f61514e61605c5fU, 0x6760605360616361U, 0x5c705b6949695b37U, 0x4e5b5d6760592256U,
  0x5c5e62645fc65062U, 0x7557645d675f6863U, 0x6264625b6965606dU, 0x645f60615f616361U,
  0x6161625e61555c5fU, 0x63605d5d61606061U, 0x616367625f626077U, 0x61615264765f5f5fU,
  0x635b606254626163U, 0x60616154605e6261U, 0x5f5d5f50815b6377U, 0x5c645f616261635eU,
  0x5f6161636104636dU, 0x4c5f556563625d62U, 0x7761616e5e5d5681U, 0x605a616560626058U,
  0x6061655c61606461U, 0x7e53687c5f605d62U, 0x61615b615d63627bU, 0x61616b6355635f62U,
  0x616461626b636360U, 0x5f62655161646262U, 0xfffff79c0000029fU, 0x18ff00002257U,
  0xfffffa310000125fU, 0xfffff2da000012a3U, 0x408000007eaU, 0xfffff08100000339U,
  0x12bd0000337fU, 0x1828ffffff62U, 0x153fffffff9cU, 0x2f900002f26U,
  0xa1affffef97U, 0x59afffff80aU, 0x2d2d00000155U, 0x133b0000213fU,
  0x78d00000a2eU, 0xb06ffffd4b6U, 0x7e2b67737d638b81U, 0x91938679938b9086U,
  0x7790ba6074707592U, 0x8e7b8c8f74817574U, 0x79cd9c717c939076U, 0x999ca66c958f9386U,
  0x6c95c66d64907290U, 0x956f929461816970U, 0x956aa07d80898a92U, 0x8d8ea07a88878983U,
  0x758b988275807b84U, 0x8a7989897682747cU, 0x7f019c6a75479081U, 0x95988a769c8f958aU,
  0x6b92576c88647299U, 0x95789393557a6a71U, 0x6effbb66699a986dU, 0xa59da564a5969989U,
  0x5e9553928b946e98U, 0xa1689f9d38795c68U, 0xa1649f79768d8e9bU, 0x978c9d77938a8a84U,
  0x708c739a887f7a86U, 0x91758f8e6c806f76U, 0x8143a4798d65897fU, 0x8989837e8d878886U,
  0x75897c8685757b87U, 0x8a808a887377757cU, 0x79c4ab7998898e79U, 0x92878178968b8986U,
  0x718a7d97868a7b87U, 0x907a8d8d71757077U, 0x8f7b877e8c87898eU, 0x8d80807d8e868583U,
  0x7a847a8b85828081U, 0x897e8788857e7b7cU, 0xbfd000022aeU, 0x338d000014e5U,
  0x15600005bddU, 0x83500003a50U, 0x5daffffffe2U, 0x11e70000079fU,
  0xffffd425000046bfU, 0x18ab00000002U, 0x51ceffffff0aU, 0x356c0000235dU,
  0x1be9000034a3U, 0x31e40000027bU, 0x35fc00003c2bU, 0x60790000277cU,
  0x816fffffbc1U, 0xffffed450000440dU, 0x31697e83858e86daU, 0x8586878b7c85827cU,
  0x8e83858e85508484U, 0x8377838284888486U, 0x8688848880818286U, 0x7d8581ae7c867e90U,
  0x80898a87828d8380U, 0x886a6987986b8086U, 0x8182828587808984U, 0x848c7b808c66838cU,
  0x858b828085878281U, 0x7f917bb188858588U, 0x8584848485858284U, 0x8587808385aa8586U,
  0x857c858585868883U, 0x6b8585ab84858586U, 0x8788878584888285U, 0x8780878d808a8684U,
  0x877b888b86858a92U, 0x5a7e8ea782858783U, 0x8386858686858983U, 0x62888b8067868d83U,
  0x6687878784858a85U, 0x7f837f838d846185U, 0x878b836c858d8387U, 0x898399758d8877a8U,
  0x7f7f8683867f999eU, 0x847b738280897d80U, 0x8486838185808286U, 0x878a858c85c08580U,
  0x8283838483858a83U, 0x4b8c7bb982898387U, 0x8685878685868586U, 0x87869a8888618586U,
  0x859986838484818dU, 0x9685856287858587U, 0x898c828686837f7dU, 0x838380a0807f8483U,
  0x8586868987858281U, 0x8e757e7f85858886U, 0x8586848486848787U, 0x8cce8c8d8a8b868fU,
  0x807a8786817f8783U, 0x8185888d7e887f90U, 0x788b858485888383U, 0x7d827a79867d8884U,
  0x8987857f85837f7aU, 0x8e9c8c8480878784U, 0x8685858687858185U, 0x8486868684868288U,
  0x87838a8589858482U, 0x84857e84867c8685U, 0x8485848785858985U, 0x888c86848889867aU,
  0x8a8c868385847f85U, 0x8283858987858c74U, 0x747f8586858c7f99U, 0x7f868a648a83877eU,
  0x8189847e86a5897eU, 0x869f8a8b87868684U, 0x848585a688808286U, 0x89857c8c888ba380U,
  0x8188888881875f88U, 0x818b9c7d8d7d8882U, 0x8586848885858886U, 0x8782888688878a94U,
  0x82818785858570a1U, 0x8985878386848185U, 0x8486828684847b86U, 0x83885a7e82ff8788U,
  0x868d848687848476U, 0xc3828a4a82848586U, 0x8784868a847f8d86U, 0x8489799485818a9bU,
  0x858f858584859f9eU, 0x828f91858e838585U, 0x8388858c81859084U, 0x86867b8285878884U,
  0x8553878488858c8bU, 0x98808c86897d857dU, 0x8382838487818186U, 0x868b80828bb1848cU,
  0x857b83828486837dU, 0x848d7d9d8886848bU, 0x7271868780a67884U, 0x86849595878c8b8fU,
  0x88868481809e7e80U, 0x815d808282868a85U, 0xda987e8486b68695U, 0x86877c777d858681U,
  0x8d83878786e87866U, 0x889b888f87868689U, 0x7b8184802e8a8d81U, 0x7b8094826885ba8eU,
  0x9287a78d448a9170U, 0x8680928c86a29586U, 0x7ba7868385858882U, 0x8485848a86858484U,
  0x858586858577878eU, 0x8686878584838886U, 0x7bb4888988a28684U, 0x8686858d8086887fU,
  0x8984848686657f6dU, 0x84858388898a8985U, 0x838986848185a982U, 0x8686968885877e7bU,
  0x869e818185868c93U, 0xa1887d9980828585U, 0x877f837a898b8185U, 0x86868f7c898583adU,
  0x81848485858698abU, 0x837f827e858a7f83U, 0x8484838784829284U, 0x828a8a8787848c8bU,
  0x7a8a8884858775a6U, 0x8787848284837984U, 0x8587848494848c85U, 0x87848d8c85888b80U,
  0x8d7da1838c83828cU, 0x7e86947f758d8d85U, 0x87858587a97e7486U, 0x898b7e8d8b83868dU,
  0x84856b9ab6897b7aU, 0x7b92c4885b988a89U, 0x8a8684697e838788U, 0x7a838b8d7b84df87U,
  0x8b87767cc4848e7aU, 0x8784798b9d799286U, 0x848580afcf868683U, 0x848788868589a287U,
  0x89888a8b3488959dU, 0x7e8c827b6b948782U, 0x8585868784867d85U, 0x8680888783538688U,
  0x849b86878486878dU, 0x5d8388a687858481U, 0x8485869884858f85U, 0x898584888e839488U,
  0x7f8b858584856f9eU, 0x8788948386818282U, 0x8489ce7c8b838282U, 0x888880827c858288U,
  0x818474808484786aU, 0x84889488877e8984U, 0x868a887989788582U, 0x957f5eb88d7c7d91U,
  0x9b7b847a9192746cU, 0x8566a58b619d9986U, 0x8286858484808384U, 0xa2818586ae848d7eU,
  0x60848e868a808b75U, 0x828b7d818d816183U, 0x8583848985838785U, 0x868682838a878c83U,
  0x8085868583865a97U, 0x878687888585818bU, 0x908085bd87a69c89U, 0x91898b58818eabaeU,
  0x8a8c8b797f7d8f45U, 0x8a5da2919a8e8b7eU, 0x8f7c838084938227U, 0x82848c848285877cU,
  0x8b838581808f8383U, 0x838688858a888686U, 0x838784b939888782U, 0x8b8881898d888886U,
  0x848878909e898d95U, 0x848d778488b58182U, 0x878482858586a887U, 0x858a838585878688U,
  0x8681868a84848582U, 0x70848a6e818a8684U, 0x8785858984857f87U, 0x8587848884828683U,
  0x8587868886848d87U, 0xa3828d9c7f878584U, 0x908385848477868aU, 0x8686817187848486U,
  0x8484867c83838486U, 0x8496858489888485U, 0x84828489858b8d83U, 0x888a8c7287888771U,
  0x8286828583869292U, 0x827a8b8785848291U, 0x8986708b856a7c99U, 0x937f7e817b837882U,
  0x9a838f019681868bU, 0x81867f7c89827a81U, 0x8586858686856c86U, 0x86897d8684c3868aU,
  0x857e868686858780U, 0x8085869787848486U, 0xa783848585748782U, 0x8583857484888584U,
  0x85858489856c8785U, 0x878986878b858584U, 0x838887868183828bU, 0x868183729085828aU,
  0x8b878a927f7f8280U, 0x8ca8708a98748a84U, 0x88858b6f978a8182U, 0x8781827c837e8380U,
  0x877cfa89ab868a70U, 0x827e728787988581U, 0x8685868784858385U, 0x8985918786648686U,
  0x869786848484838bU, 0x9586886285858587U, 0x8687868785856d86U, 0x8783888a8372878dU,
  0x8793878787868282U, 0xae85865b87858583U, 0x948a868380757d8eU, 0x818782b47e8c8874U,
  0x828b827c77818187U, 0x716d6578987c7e83U, 0x8d8d7a738b7f8384U, 0x907e7ab99283808cU,
  0x96839294938b817bU, 0x7f67a58465a7a189U, 0x8884828982858588U, 0xa3837f8ba1858286U,
  0x9a8386868587828dU, 0x8c81928579819c86U, 0x8384886f847f8382U, 0x7c7a7f9a7b827486U,
  0x9072808b878d6b78U, 0x8a926f8677878f8aU, 0x86817dabcb8b7e88U, 0x73808b848188888aU,
  0x8b897a8bd7858e92U, 0x857c967f9e689084U, 0x998f868d8a688e66U, 0x84817d8881867f88U,
  0x888486968f507e79U, 0x847b848485848786U, 0x8485858486848985U, 0x64888b82698a8b82U,
  0x6986868584848284U, 0x7f887b888f856682U, 0x887f7da583975986U, 0x9970796289859ecbU,
  0x79908a8e8e828177U, 0x8263a47e8d7b7477U, 0x8485858685838485U, 0x8787838886898587U,
  0x8486858786867e88U, 0x8487848783848544U, 0x81878679877c848cU, 0x72847f6175837f83U,
  0x80808e87907d827cU, 0x82b2a084699a7a82U, 0x8287836d85847c83U, 0x838387877e888288U,
  0x8682948684878573U, 0x708a95796fb08785U, 0x15fe00000039U, 0x9930000138cU,
  0x563f00000c60U, 0xfffffb33000018a0U, 0xfb800001269U, 0x1e91ffffed01U,
  0x213b000012eeU, 0x7d60000126aU, 0xfffff6e700000caeU, 0x16cbffffddc3U,
  0x1e63fffff9fbU, 0x1953ffffb5cbU, 0xb10000048dU, 0x747ffffe680U,
  0xffffee3e000012f1U, 0xffffdbc8ffffc75cU, 0x1b71ffffd423U, 0x19ca00000524U,
  0x2733fffff1d0U, 0x5d200002070U, 0xffffe9a9000035b7U, 0xfffff9a800000f21U,
  0x219700001a33U, 0xfffffc4d00004d08U, 0xfffffb2b000019c3U, 0x1143ffffbe6bU,
  0x282c000012baU, 0xffffd776ffffb8feU, 0xffffa2dc000025f0U, 0x534600001a7dU,
  0x32e900002e63U, 0x1cfe00001c18U, 0x868579828a818682U, 0x8591817f8b848b73U,
  0x85868488898a8388U, 0x878585758088827fU, 0x878386817d9b8d85U, 0x8d86827d86878689U,
  0xa683848e8a887e89U, 0x8785898375868386U, 0x998a858c818e8584U, 0x6e6693ff8184807cU,
  0x85898a7d7b877b67U, 0x817a90867d758491U, 0x89837e7d7a676988U, 0x668689ce81707984U,
  0x678c826187868558U, 0xa08976898d8c7f8fU, 0x8083908383848085U, 0x85857c7c8284838eU,
  0x848481868686828cU, 0x85857fa78487858aU, 0x82848684848d7f84U, 0x8283827f83818786U,
  0x7f848a8171838588U, 0x87818f838d838485U, 0x7279858cb78c807bU, 0x8d7a8f8cba83b183U,
  0x7b897f7e7d897769U, 0x85868d8d90798692U, 0x88837f727ba56b87U, 0x6c84878a827283a3U,
  0x5e8f976e80828781U, 0x818275858c837b90U, 0x87a4716c5165af72U, 0x9da4b70f5a7458aeU,
  0x6a96a4a6afa39ed4U, 0x9f9a4442a8b7cc01U, 0x97b16f9b7b45ba9dU, 0xbf70bf4373b97488U,
  0xbc9080bdb1a5b1b0U, 0x6d9e43709ba76b55U, 0x9275838489848885U, 0x8b85819082848989U,
  0x7d8475867e818869U, 0x8285988d847e8491U, 0x857f878f839f8785U, 0x83827b8a84838485U,
  0x7f837c838c848981U, 0x828b818780807f96U, 0x828590839d847e84U, 0x8584828488848a8eU,
  0x8485858685877f8aU, 0x86867fa680868482U, 0x83848686838b8185U, 0x83828188827d8586U,
  0x8684868273888384U, 0x838492848d838386U, 0x798782846e858085U, 0x6f86819282838387U,
  0x8485878683828b6bU, 0x837fa28b7d80838dU, 0x837e878c836e8483U, 0x81837e7d84918682U,
  0x7c83908384828688U, 0x88827d897e848794U, 0x8785808283848586U, 0x8984808282858170U,
  0x8584848786858788U, 0x8685776f83858485U, 0x8384867f85948685U, 0x8388828583868585U,
  0x8a8586838d838084U, 0x83858f847f838384U, 0xfffffa2c000013e7U, 0xffffffc700001921U,
  0x166400001926U, 0xffffffb000000a1fU, 0xfffffe9dfffffabaU, 0xfffffe8d00000ca8U,
  0xffffed35fffffa34U, 0xf0bffffff96U, 0xffffffee0000100cU, 0x75dfffffe6cU,
  0xfffffe81000001d1U, 0x6f7000000b4U, 0xffffefde000015f1U, 0x7d8000005ecU,
  0x941000002d2U, 0xffffffc7fffffe35U, 0x15600000000U, 0xa7300000256U,
  0x1a6fffffffa7U, 0xffffffdf0000041aU, 0x13f4fffffc48U, 0x1879fffffe5dU,
  0xfffff5e200000073U, 0x43500001436U, 0xfffff3cb00000020U, 0xfffff923ffffffdbU,
  0x6ef00000756U, 0xfffffebc00000018U, 0x5c400000f70U, 0x2affffffc7fU,
  0xf1400001038U, 0x119fffffc56U, 0x738b7d7d7661676fU, 0x876e6d736e74746eU,
  0x726f807577746e7aU, 0x6f76606e628c6d6eU, 0x6e6f646262717671U, 0x6f6a6a7280587374U,
  0x76797d716b727275U, 0x7e756f79866d737cU, 0x7375bd7971657572U, 0x747185737678736aU,
  0x726e757b71717077U, 0x6b736a726e6d7370U, 0x726f7b6777727067U, 0x757e797181727374U,
  0x7479697476797770U, 0x6e6770881c716f6fU, 0x706d6b6e706c706fU, 0x6e70787470726d6cU,
  0x71716e6f6b7b6f78U, 0x6e70747268837878U, 0x6f756a6b6c706d6eU, 0x6a708671496e7272U,
  0x756b71726e797171U, 0x6d6b75766c707071U, 0x6f8c817375676874U, 0x7b7666736d727376U,
  0x6a6a74737c6d7158U, 0x646c6a715b756f72U, 0x7a6b6f637b8b7966U, 0x68626c74804b7f6cU,
  0x6b7d786969697176U, 0x72706e5c876f644dU, 0x70726f976e79736fU, 0x7173766f6f6f6e7dU,
  0x6e72725173706d70U, 0x7170727177746e6fU, 0x70756d70716f7171U, 0x7870707270737171U,
  0x727271727d6e7373U, 0x6e7275726f716e7aU, 0x6d6d6e667a756f68U, 0x71736c717368796eU,
  0x7279796e6c667070U, 0x6f6f6f70847a7573U, 0x707169706d74726eU, 0x74706a6f70737078U,
  0x6f6b6f6f706f7172U, 0x706f6f776b777474U, 0x6e6b798366623c7bU, 0x766b725f8f7a5170U,
  0x77654b816b746f63U, 0x6e69727278635174U, 0x736e73646c667370U, 0x71756f5f786e6d70U,
  0x694b55747370866aU, 0x73a66c7567617b66U, 0x725872776c727272U, 0x6f6c74746b6c6d71U,
  0x6b706c756a77717cU, 0x7379756e62677070U, 0x6e7f72696d6d757dU, 0x716e6d706672616dU,
  0x726d71727076706eU, 0x766c6d6b726f647bU, 0x6a676b516c928a75U, 0x7568705f486b8a6cU,
  0x766268576e6c7060U, 0x6e6c6c6c78705575U, 0x766b6e82656a776bU, 0x7580766163636e59U,
  0x689d817670772967U, 0x733b6c7378677a5dU, 0x63626f8e726b746fU, 0x6e6d79676c746e57U,
  0x7273727e1a81ff6fU, 0x736f6d757092766eU, 0x6f736c6e676fd671U, 0x43726b72775c6a6eU,
  0x716e74784e746e6eU, 0x6d70796d6e736e84U, 0x6e71736c6e77756dU, 0x6e6f726e7174736dU,
  0x7472716f897a6f6dU, 0x7170747272776d6aU, 0x797f6d7772747476U, 0x746e80727c8d6c72U,
  0x6f7267726e6f6f70U, 0x6a70706874737177U, 0x7567618970577275U, 0x73f0686d7077716fU,
  0x636872846f6a687cU, 0x7469756b7b6c7673U, 0x5e6856726e736475U, 0x676a6ff586697468U,
  0xcc7b6a6e797267ebU, 0x696c6b786f6d6f77U, 0x64824f786e6d5873U, 0x7e726d6d6c6d698aU,
  0x70696b6f6e70726dU, 0x7169755a58666e76U, 0x63618a896e76716fU, 0x72607a756f6d766bU,
  0x717e6b7155718073U, 0x68617171c76e7171U, 0x676f72706fa0736eU, 0x737272706c826c6dU,
  0x6c7270854d738974U, 0x746e766a756e7170U, 0x67716d6e716a2574U, 0xb370726e5d766c72U,
  0x7369686f6a6c7671U, 0x6c6f666c6e717277U, 0x756e166d72737b75U, 0x6f7065757574756eU,
  0x706a73696f65707dU, 0x6c71727a70687071U, 0x6f67846a716e6f69U, 0x746e6a6f63717668U,
  0x7c5e776f73746372U, 0x727f6d87c1716d76U, 0x746a7278706b7375U, 0x6f4c787f7375736eU,
  0x436b6d737568667eU, 0xb2888177556a7776U, 0x6b8b596d6f7973e9U, 0x6f70665680740a70U,
  0x756b6d7771946854U, 0x8f6b6a66746a3c88U, 0x787c775a748c7a7bU, 0x7477747a766e6a6eU,
  0x5b656a5b716e7556U, 0x687767786b526670U, 0x6e7375794b857162U, 0x6a6f7d78676d7b67U,
  0x77655f676b697e77U, 0x65716c69756c715dU, 0x6cd3716678776b53U, 0x5d75686d78787a6bU,
  0x6f8e7e6475676793U, 0x736f6d6e9180b2beU, 0x4655696c67777176U, 0x686d66726c6b6b87U,
  0x7b7075716b727376U, 0x6d746690738c7897U, 0x6f8477757178706aU, 0x7774776b726b7270U,
  0x7276757c6e766b75U, 0x6c6b6f717b7a7377U, 0x6c636b7172766d69U, 0x7070767379717874U,
  0x6e71706f706f7073U, 0x6b736d797875726eU, 0x6c5543716b697378U, 0x586d68666a717176U,
  0x79666c7b6f69786fU, 0x6e666c6c82656a69U, 0x887b756a806f7171U, 0x75706071766c6b67U,
  0x747877747367756fU, 0x6f76726c43686b5bU, 0x78726d5e763c7271U, 0x706e777171747173U,
  0x726f70436a727470U, 0x70706e6e726a6f70U, 0x736f6d6f736e7271U, 0x7371756f766c6f6fU,
  0x7073716d6b72706eU, 0x6d717273706f736bU, 0x897681736e6a8b70U, 0x7d716d6a726a654fU,
  0x767174717a6e6765U, 0x6f7873976e756e71U, 0x65716b677e67706dU, 0x7383767977606f6eU,
  0x8860957492716970U, 0x779e6d6d5b706d66U, 0x6d8c66756f667161U, 0x51706857736f7372U,
  0x8978767469547162U, 0x66567a749a6a6f6bU, 0x732a9970767c6e67U, 0x727276677767657dU,
  0x6b6a777274956e6cU, 0x53716d78637b815eU, 0x706c6b7e70777174U, 0x6f6f736f72777373U,
  0x746c7a7d896d767aU, 0x6f7172737576706fU, 0x7277726b69726173U, 0x80696e6f6e697070U,
  0x727b807372707670U, 0x747a66706c706c80U, 0x65615a7074715469U, 0x6461787c786d6db1U,
  0x7774796a726c716fU, 0x6d7d7a5476686c74U, 0x70656a996e7e6b70U, 0x6c4c796e636f7072U,
  0x728f7a703e71b365U, 0x8265668284797772U, 0x70706d736f6f785dU, 0x677c727484768972U,
  0x85888c72767b6c7bU, 0x7c6e667375697a7cU, 0x6667837171776d7fU, 0x706d657972696277U,
  0x6f726c7074767b83U, 0x70756f7870918278U, 0x6f706b7575747670U, 0x6e6f757e70716869U,
  0x6c726b5e606e5e68U, 0x71736e6f6f5b6d70U, 0x6f6c73706c70a06bU, 0x3e7c726f6e7b726dU,
  0x73685c81666e7772U, 0x60696f6e6d727e74U, 0x7543646d74766e7aU, 0x816877683c795775U,
  0x79565a6b846e7257U, 0x7a6a777859649da8U, 0x6e6084716e6e7c7aU, 0x786b7a6773596c76U,
  0x6b7f7f757a7b7161U, 0x72826f8567487057U, 0x7579706b78757e73U, 0x77746d7a6e657174U,
  0x6b6e75706367737bU, 0x717a71608963706dU, 0x74797b73795c7171U, 0x7265817669716c70U,
  0x6e6c72736e6d8273U, 0x7170716a67766c71U, 0x70757170796b7260U, 0x746c7a61726e746dU,
  0x7c847c6d705d7572U, 0x845e6371666b756eU, 0x707960696e7c6f81U, 0x70768969786b627dU,
  0x656d796b7070736fU, 0x62706e6e70807d68U, 0x6f5763696e68727bU, 0x6d6c6e766d776b75U,
  0x6b676769745c7869U, 0x7376726f70696765U, 0x7e7e7270706d7977U, 0x71716c6c6a71686bU,
  0x707371747671716dU, 0x736e756169686b6bU, 0x6e7572756f66986eU, 0x6e6c6e9d6d777273U,
  0x7a7063786c6d6c65U, 0x6a4d73717266706dU, 0x6f68715d716d6e6bU, 0x746a706e7a777b73U,
  0x643b7c6a75548d6eU, 0x543970676c6f7a5eU, 0x704d6c7c73627277U, 0x756a7b706b7b726dU,
  0x6e6b7b7381666be1U, 0x71777188a890717aU, 0x3791596c49927a76U, 0x7874686a7f7a6e66U,
  0x8173767271866d6cU, 0x776d6e8e76736daeU, 0x706a697178756e69U, 0x6c6f77707574786fU,
  0x707a77666e697176U, 0x6f6f6f7091727672U, 0x6c71646e7377706eU, 0x6c7074716c6d707aU,
  0x6f6e6e716c72716fU, 0x7470707d6a767474U, 0x6f47737068777283U, 0x71727f676f6d6f74U,
  0x715e6d7072666e77U, 0x846d6c703b5e6a6eU, 0x7193727071706f8aU, 0x777081736c725a5dU,
  0x6b77707572667471U, 0x71746d6072686d6bU, 0x727171726d717173U, 0x716e6a716c6d6e72U,
  0x6a6c6c6c7a8e707dU, 0x76716a6d7669666aU, 0x751f5471786b6d80U, 0x756c7b6f666b656bU,
  0x6c70716f6e6d726fU, 0x75746c71706b6b6dU, 0x6271705d667e7270U, 0x726d6e7a718d6c6eU,
  0x6b706d6c6c6b786cU, 0x6e70716d75696c6eU, 0x6c6e6d70646d9870U, 0x847a7171706d716fU,
  0x716761546b6c7673U, 0x686a6f7071707670U, 0x7a757444a8676c71U, 0x776f7f6c68596a8cU,
  0x70736a94875d5772U, 0x7372786d7f5b7074U, 0x7a63746f7a6a7e75U, 0xfc766d6974346c71U,
  0x6b6f70018d6e6f6dU, 0x66737b8775716d6cU, 0x6d696d646e827a70U, 0x7375806e6e726b76U,
  0x6c716e6c6c777470U, 0x726d6e6c74787175U, 0x616b6679766d7673U, 0x71767573ca7d6e71U,
  0x6b746565776c7574U, 0x6c727070736d7079U, 0x77746e6d75717173U, 0x736c856e73707470U,
  0x756d6f7257757073U, 0x73706c746a7f6e6eU, 0x74696f736f776f73U, 0x6671706e78736c6dU,
  0x7074726d71716d6dU, 0x71746b6b766d746dU, 0x726b6f706e727058U, 0x766f657264716374U,
  0x7685697572846f64U, 0x6b6f74708d6f726dU, 0x6d80666d72657469U, 0x7173626b6e68767fU,
  0x716f737073707070U, 0x6e706e756d76786bU, 0x7f78857e6e6a766eU, 0xb46774886f6c7070U,
  0x6e7370766d7d6e7cU, 0x7b7a786c486c716cU, 0x637a70706f796782U, 0x686c736c7977616eU,
  0x756c736872916e68U, 0x736c736586706e72U, 0x696a6d7766627072U, 0x6d6e7c6b6f4f7161U,
  0x767473876a727d64U, 0x70726e726b8c7372U, 0x726c706e7d72856fU, 0x84766971726c6e72U,
  0x6f727063666d6e6eU, 0x7073737b706f6f8aU, 0x6d7c6f766f6e6a79U, 0x727975706e716f6dU,
  0x726a696e706d6d72U, 0x6b6a796f78756c70U, 0x697e447472726f6cU, 0x726f7179726c7864U,
  0x816f6e7568696879U, 0x6a6b717477677374U, 0x6f666d6871736e67U, 0x71757e75756d756fU,
  0x6d7a7768674d6979U, 0x597375726166766fU, 0x70b6966f716e6b4cU, 0x736d697370758877U,
  0x72716b726e6c7272U, 0x6b6f6d66707d705fU, 0x736768786d677673U, 0x5f6f6f746c746c79U,
  0x736d6f707c6a7238U, 0x656c6d77555f6969U, 0x7645797070777b5eU, 0x6f71886d7556816cU,
  0x6f77786f79757471U, 0x6e7675566a6f766fU, 0x6f787d6f746f8073U, 0x8d6a6f5d6e716f6cU,
  0x6c6e716e69776a8aU, 0x7642826a736e7574U, 0x6b76666671636c7cU, 0x68786d726d886d71U,
  0x7c6a6f6a667f7b73U, 0x6a666d8c7c675980U, 0x6e77706c6e79696aU, 0x706a6f686f6a6f6eU,
  0x74746f6e738a6e66U, 0x786e687183777070U, 0x677e736e6d746f79U, 0x7075636871686574U,
  0x68716d716f716d6bU, 0x767471756c6d7264U, 0x69756b577a7c7170U, 0x716f82716f766f75U,
  0x707171a8706e7070U, 0x70706f6f706e716fU, 0x6b6a6f7170707371U, 0x75707c71736f6f71U,
  0x71736e6c7070706fU, 0x72736e6e7472706dU, 0x6f576475706f716cU, 0x606a6a686d837273U,
  0x7c70757382746f75U, 0x6c726c757f8e7672U, 0x7974706f72717e6fU, 0x6e72706b79567272U,
  0x6879807a7971736fU, 0x7e7c6f6e636f6c7bU, 0xae6d72a09f5f7673U, 0x686779726d426d7dU,
  0x73726c605b70817bU, 0x7672757074627576U, 0x786d736f7d73646fU, 0x40796d6d6c656f70U,
  0x6b75729c78777368U, 0x6b6d6285706c7984U, 0x6f967b6d776e7466U, 0x72716c71726f706dU,
  0x6d766f6e76747462U, 0x6470707892797171U, 0x6a557573707d6f60U, 0x6e71706e776d7f7bU,
  0x726c6e6d70756e70U, 0x716c6f757c706d6bU, 0x6e6a686f6f756962U, 0x6e726f6f6d707172U,
  0x6b8172696a676e64U, 0x667a70726a696f68U, 0x7c6b6b74716a786aU, 0x76737f706d6d727dU,
  0x6d7966767467676fU, 0x7f75755a687c6b6bU, 0x67444b686e73696fU, 0x536f786f6d72766cU,
  0x7271706c6e5b7399U, 0x75727463986f726fU, 0x736b676b725c7378U, 0x72726771677b6570U,
  0x6d646a796a6f6870U, 0x7769709248727585U, 0x646b73706753706fU, 0x71756d666e4b706eU,
  0x7572787f84676c7bU, 0x74736b6f76766f70U, 0x6d6d746d6a6e8c74U, 0x896d68747e696c72U,
  0x6e777d456f6c7071U, 0x7d78707472716b74U, 0x6f7d746578786d75U, 0x7376737b7a6d796dU,
  0x706d6e6a6e696d89U, 0x6f72876f6f718385U, 0x636e70727a6b6c77U, 0x686b74786b7e696cU,
  0x7669646c6a7c6775U, 0x6c6b6e786f716e89U, 0x6d6b6d566b3b726fU, 0x6e70716d6f756f73U,
  0x6e7175416f746372U, 0x6f6f736f75656f6fU, 0x6b746e6e6d707771U, 0x7a6e766f736f7072U,
  0x71737270756d7371U, 0x6e72706d6d726d74U, 0x696f6775666c5f76U, 0x6b676b656a736075U,
  0x7669527a6c6b704cU, 0x6b646a72695c5b65U, 0x7c6a6d686a6f7765U, 0x7a835d646f727268U,
  0x6d69687c76755a66U, 0x6760756c6c5d793cU, 0x6f6d6e716f746d70U, 0x6e7173746d6e6f6dU,
  0x6e6f6f686e7c707aU, 0x6b7575716f707776U, 0x6e736f6b696c6e6bU, 0x716e82718a6d7372U,
  0x766b74756d796d71U, 0x756a757a6b6f6d70U, 0x6d706c44786d7270U, 0x727173726f726d70U,
  0x6d717197776f7170U, 0x6e72717073687070U, 0x6d706d6e6e6e6d6eU, 0x79707a71746c7071U,
  0x72726e706b6f7272U, 0x6f7177746f716e75U, 0x727b69738d6f6b7cU, 0x6a6f766a926f9d69U,
  0x6a67896d72707477U, 0x6a687a766a6e766aU, 0x6e707c7a737b6f69U, 0x6f6b7e7378677a6fU,
  0x7c6665716f706771U, 0x6b6970676e716c79U, 0x666b6d746686716fU, 0x7072736c6f7d6e67U,
  0x6d71717956718a6eU, 0x7170716e74877170U, 0x6c6f696f716c6974U, 0x7a72697176676e71U,
  0x716e6c705c6f7373U, 0x6d71706c6d706c77U, 0x6c6b6e6d69726c6aU, 0x6b76977466706d6aU,
  0x6a7870697c6d6e6bU, 0x6575776b766b7572U, 0x6e69796870636e67U, 0x726c6e736d69797aU,
  0x716b707c686f7075U, 0x74684e6574766972U, 0x9d6d6eac8c4d626bU, 0x72736b5867866887U,
  0x7c6c826a995c5d84U, 0x72726d6883796b70U, 0x6b67745f535a5879U, 0x226a666f93206a76U,
  0x6e8890c668666a70U, 0x867b7462726d6965U, 0xffffca8cffffc439U, 0x67200001622U,
  0xfbeffffe32aU, 0x1821000002c6U, 0xe0b00000ffaU, 0x34dffffdea2U,
  0xfffff1bcfffff27cU, 0x4a3dfffff6c0U, 0xffffbf9500002690U, 0x3897ffffe930U,
  0xffffdd2b000042cbU, 0xffffd4ab0000136fU, 0xffffff1700002cfaU, 0x125e00001442U,
  0x20d3fffff91aU, 0x134b00003c0bU, 0x69fffff79f3U, 0x2b03000018d2U,
  0xfffff615000001e4U, 0x1356ffffdafbU, 0xffffd69200000bbfU, 0x2a4ffffe8beU,
  0x2f03fffff635U, 0x10a0ffffcac7U, 0xffffdf7bfffff595U, 0xffffe0b8fffff31cU,
  0x10d400003835U, 0xffffe351fffffd3eU, 0x458c000037f1U, 0x418000006e0U,
  0xfffff06cfffff7deU, 0xffffd2910000126dU, 0x68abe7acb37e85b3U, 0x8ead778590ae7eaeU,
  0xafb0a58376ca8a84U, 0xafaa85abacb1697dU, 0xb08a7eb986aa4a7aU, 0xa9b57ab0a9c58570U,
  0xbb75d680a982b95cU, 0x82a9cd82ad7ab7abU, 0x5db6ffb1bb777ec0U, 0x8db2757f91b57bbaU,
  0xb6b9ae776c72837dU, 0xb55b7db3b1bb5f81U, 0xb88775c581af2972U, 0xaebf71baafc8825eU,
  0xc470e778b37cc438U, 0x7bafd270b570c3b0U, 0x80aac5a2a38a8babU, 0x93a1888999a38aa9U,
  0xa4a3a38b86858a8cU, 0xa2b48ca2a0a68393U, 0xa58f86ac8da05989U, 0xa0a688a9a0ab8f83U,
  0xa786c28ba48ba95eU, 0x8aa1af7ea487aaa1U, 0x89b12db2bb767dc3U, 0x87b5757e69b47cb5U,
  0xb6b9b07769dd857dU, 0xbdb379b3b3ba6080U, 0xb88475c780b3b973U, 0xb1c072bbb2c97c68U,
  0xc36ee476b07dc8c9U, 0x7ab1d077ad6fc3b1U, 0x89bd01bac66c77d4U, 0x84ba72765fbc78c4U,
  0xc1c2ba655c697b74U, 0xc44f6fbdb9c84e76U, 0xc37f6dd779bac569U, 0xb7cd67c7bbcc764aU,
  0xcf68f96bbe73d7caU, 0x71bbd65db562d2b7U, 0x96ad45a6a98588b5U, 0x8fa4868588a685b0U,
  0xa9a7a78280798687U, 0xa7bc86a5a3ad7d85U, 0xa98b7eb38aa5a882U, 0xa3ad82aea4aa8b77U,
  0xad82cc86aa85b0a9U, 0x84a6b170a280b2a4U, 0x9da19ba3a88b8caeU, 0x8ea4898a80a38ba1U,
  0xa4a5a48985b48f8bU, 0xaca088a4a3a58893U, 0xa48e84ae8ba3ab88U, 0xa2ab88a7a2ae8987U,
  0xa886b888a28bb1b1U, 0x8aa2b088a088a9a2U, 0xa5a6a9a8ae8789b8U, 0x8da586877da586a9U,
  0xa9aaa88180818d87U, 0xaf7685a7a5ad8284U, 0xa88b7bb787a6b37eU, 0xa5b182aea6b0847bU,
  0xad84c382aa84b9b5U, 0x85a6b17ea383b1a5U, 0xa09e97a09f8f90a4U, 0x949a9090919d90a1U,
  0x9e9e9e8c8e889090U, 0x9ea88d9c9ba08f88U, 0x9e918aa38f9da08dU, 0x9ca18ea29c9d8f8aU,
  0x9e8fa98ea18fa0a9U, 0x8e9d9f889b8ca29dU, 0x6afb0000000cU, 0x40000072baU,
  0xdf000000002U, 0x2db8fffffb63U, 0x1ed300000edcU, 0x406900001215U,
  0x23d2000067d0U, 0x4d37fffffd20U, 0x2a2500005d39U, 0x5e4400000333U,
  0x30e00005205U, 0x624ffffffdfU, 0x63340000523cU, 0x3cd000032abU,
  0x7ff50000081cU, 0x46e000001a6U, 0x155900002178U, 0x4d3f0000005eU,
  0x1b5000000178U, 0xffffe4e500003906U, 0x3b0000003f50U, 0xfffff14e0000000aU,
  0x5dfc000000f7U, 0xffffeab3fffffd63U, 0xf1ffffff6fU, 0x122000020bbU,
  0xc000071d5U, 0x35400002a00U, 0x1d200000045U, 0x1dd00009dfeU,
  0x2500004e1eU, 0x2024fffff62cU, 0x948d8e907d868ea7U, 0x8f90919092998e92U,
  0x9996858f9a8f8c66U, 0x92918c8081928a90U, 0x8f9491888f908e81U, 0x8893988c868e908fU,
  0x85828e8b918e9990U, 0x84889193938aa293U, 0x8e928e898f699093U, 0x8e918f9290958e90U,
  0x998f8d96918f918dU, 0x908f94948a928f8dU, 0x87928f89958c908dU, 0x949191908d92918eU,
  0x8a8b8d91958f928eU, 0x8c8f8c8f91a99095U, 0x8692907b98859090U, 0x918b7f8a8c9c7f95U,
  0x9a8f9299848c8b93U, 0x93909c958b999093U, 0x8c83b48895929290U, 0x908f918c927f8d8fU,
  0x92a191838faf9a8bU, 0x9983af917c918aa3U, 0x8c8d8f8c918b8d93U, 0x918f878c928e938eU,
  0x8b908c8f8f8f8e87U, 0x8d8f948f91b18f91U, 0x8b93916491909093U, 0x908d8f90918f8c91U,
  0x965e94908f898e8bU, 0xa18d918f948c8c8eU, 0x88948b828f79889aU, 0x9c97898e93898c92U,
  0x9c908d828d8d908eU, 0x8c9195978e959290U, 0x81988c8fae9c8e8aU, 0x9f8f93987d93958eU,
  0x8a8c8b91928f8c8dU, 0x93968c927b9e8e81U, 0x8a8a928e957d8e90U, 0x88928f8d9faa878eU,
  0x8898968a8a8b8786U, 0x888c92899d878e8aU, 0x9a9593948d8b9784U, 0x9b9485918f938c88U,
  0x9c8aa4938f94838fU, 0x8c8f8f8884849c7fU, 0x9090929084969296U, 0x8e8e87918b8f898eU,
  0x8ba08b8e91a56f99U, 0x8fa7828592917b90U, 0x8497958d8a94919eU, 0x8c8d889776948684U,
  0x9391868aaa918b92U, 0x938f93858e918693U, 0x908d8e9290948c98U, 0x899292918d899190U,
  0x8a8e8e97958f918bU, 0x9f8e96937d8d8d92U, 0x8791919286998e8cU, 0x9a828d87878d8387U,
  0x8a928d9888968d90U, 0x92969094918e8d94U, 0x888b8c8c91978e8eU, 0x9894918b9480908cU,
  0x82968f948a899888U, 0x8c8b8e828e8c8f95U, 0x989e918e7e939399U, 0x929088917f90959fU,
  0x949490908b8e858bU, 0x93928c8f8c8c9187U, 0x9f8b918da6959595U, 0xa38d8a988ca0938aU,
  0x8b809792868e9181U, 0x9b8cb1ab87948786U, 0x949b8e8c93859188U, 0x78908cab66909e95U,
  0x7f8f9b8786909394U, 0x8c9391788d858891U, 0x8a989b92aa98897dU, 0x8a978d9988958999U,
  0x8e8f8e91b385878fU, 0x9586a298927b858bU, 0x9288838a8e97a381U, 0x9a8c8d9293979d8dU,
  0x898cae8d93879897U, 0x8c79928e95919496U, 0x9b8a8e898c94928aU, 0x8a8c518e91877189U,
  0x8f8e92999090969dU, 0x8a8f9092939e8f8eU, 0xa3907d8f8f8b8f91U, 0x8c948b9298878c8eU,
  0x86968b94968b8e92U, 0x8a93b28b8d98917fU, 0x938f8d9b8e8da291U, 0x928f91688d8b9190U,
  0x8d937d8e8b8c8d8cU, 0x928c8e96968b9084U, 0x8f918f8e8d908e8bU, 0x8f8f8b8d938e9490U,
  0x8f908e8e8a928c8bU, 0x8f938e9790908d92U, 0x8a86938d9586968fU, 0x7b8691888c8f8c86U,
  0x8c8b958d8e96938eU, 0x899284898c90908fU, 0x8e8e8e918e989290U, 0x988c928e928f9090U,
  0x8c8f9d87858e868eU, 0x918f8b918b8c9089U, 0x9b92988d8d918b98U, 0xa2928d928f8b8f93U,
  0x919591878e958492U, 0x84998d939592888eU, 0x92999490928a7f8fU, 0x928f9a8b88919f85U,
  0xa092928da88d8789U, 0x8e8b96898e868c8aU, 0x8f948f589f7391a2U, 0x8b9198979bc19d8bU,
  0x998c8e958e8f8fa5U, 0x92939a808872928fU, 0x9c7ca4af9b8d8e91U, 0x848d8b8e897d8d83U,
  0x92948f8e95999e98U, 0x9685928fbc9e91a3U, 0x938a928e8b85908eU, 0x9a9190928e8d928bU,
  0x8a958a9095918491U, 0x94957789958d8990U, 0x8d908c8b9c85928cU, 0x8d9489989a91899aU,
  0x8c919277928d8f92U, 0x919390928f8a898bU, 0x8f8e8fd0909d918dU, 0x8c9191948f828e8dU,
  0x8a8c8e8c8f8f8f8aU, 0x918f8f938d8e8f8eU, 0x989396908d8f8d90U, 0x8a8d928d8a9d8d8eU,
  0x8e8f8d8f8f838e90U, 0x8b8f898e8a888f88U, 0x8a99928b8f8a9692U, 0x8f8f939787888d98U,
  0x9d838b8f8e8d9085U, 0x8d8f8491898e9390U, 0x8c9b8d92748c9090U, 0x7c938d86998d9394U,
  0x888c9079838f958fU, 0x858f87918e948591U, 0x90c68c8d8f908194U, 0x909c938a9f8b8abeU,
  0x848f8b8e928c8e8aU, 0xa68e8c818a829993U, 0x8e898a8591868e88U, 0x9e93808e888f8d88U,
  0x9791938082898d8cU, 0x8f938c928d98798bU, 0x919391978a978e90U, 0x9d8c938899918e8eU,
  0x9a948d90918f9291U, 0x8e8e9b8e968e8d91U, 0x998f9290ab8a9291U, 0xa49187998c908d89U,
  0x98928f9e918d918fU, 0x908b8e93968d9193U, 0x943f919b8d8d9094U, 0x8d8f9197949592bdU,
  0x828d8c938b92968fU, 0x8f8d8f928f91948fU, 0x8b8e948a8c8b928eU, 0x948d8b8e90928c91U,
  0x8c9191978993938fU, 0x8f93918f96938e8dU, 0x9192918b939c8b90U, 0x89988f9795989490U,
  0x9d949185938f8e92U, 0x8e8f8d7c95918b89U, 0xa391989780948c91U, 0x8d8d9b889087958eU,
  0x969193988d948e89U, 0x99c888957ca1958aU, 0x9d939497a19b828dU, 0x95a08f9082839093U,
  0x9086938c9b8b8983U, 0x8a89b8ab8e8a908dU, 0x839b8897b89a997bU, 0x9b8f8da26c919c8dU,
  0x99939bb099908a8aU, 0x959896878e818a95U, 0xa19d799498999491U, 0x92858e7e88918f9bU,
  0x95808b908f938d89U, 0x87935c8e8e8d83b0U, 0x9d8b948b84a47a9dU, 0x95879e8b908bd593U,
  0x9c8d8bb48f908e72U, 0x8a7492738dae9099U, 0x918f8e7e8f8a8f8dU, 0x8d908a908e8b858eU,
  0x87938e8c92908f92U, 0x8a90909491918f8fU, 0x9d8f8c8d8f8e8f8dU, 0x8c8f8f9093898d90U,
  0x8e8e8e8e8f928f8fU, 0x8e90a0907e918fcbU, 0x8e9990949389858fU, 0x9b978d89849c8d9cU,
  0x8e8c948291928d8aU, 0x8c86838d908e9891U, 0x8d918f8f88818e8dU, 0x84908b8d9695948cU,
  0x8f908d8aa0879191U, 0x90999386898a8d83U, 0x8d929185928b928aU, 0x918f94939591938fU,
  0x9d8d8f7f8e908f96U, 0x8c908d8f94938f8fU, 0x879483998b8d918eU, 0x94908e93927f8f90U,
  0x8b838e9490968b90U, 0x9292908f9f8c8d85U, 0x8ba8959bb79491aaU, 0xa79384966eb38fb1U,
  0x715fa786839c8f76U, 0x8ea19a7866708a80U, 0x6a9a6e8ba57e9491U, 0x86a3ab7b75a68e7cU,
  0x8b86ab7d6e6d6e97U, 0x64949e759a819f85U, 0x8f8d92919090968dU, 0x898c8e948a9d8e8eU,
  0x918e928a91928f8cU, 0x8d9094998f8f8c8bU, 0x89868e90ac898b8eU, 0xa98c879298918d85U,
  0x8c8d8b9d928e918fU, 0x92958f8b8e979290U, 0x9397928e948e8e8fU, 0x9d9190928e939393U,
  0x938a8f8b918d8a86U, 0x9990928d8b8a8d8dU, 0x94988e8f7a819292U, 0x8a938d87858d8693U,
  0x93909385988c8f92U, 0x8d8d898991898a8fU, 0x8d8c8e868f93908fU, 0x938f8e908f878f8dU,
  0x85928fa091918d95U, 0x8c918d919193918dU, 0xb48c8692918d8f8fU, 0x8e908e8f8f858f95U,
  0x8f9091938c8d9298U, 0x8d98948cc88f908dU, 0x948b908a8d929489U, 0x8f958d958a828890U,
  0x86918ca08e959093U, 0x89918e958f92908eU, 0xca7a8796898e8f8fU, 0x8e90928e8c7e9092U,
  0x899090938a81959eU, 0x8aa68e8dbf89949dU, 0x8e908fcc8f91928cU, 0x8f8d8d908c82878fU,
  0x8c8c8ca38c8f9291U, 0x918f918b8a8e9090U, 0xae9496928e8b8f8fU, 0x888d938d88958e89U,
  0x92888d8f91858b90U, 0x8f938e9097938f94U, 0x8c8b8a9295818891U, 0x8b948f938d99908aU,
  0x8c8c8c8c8d948591U, 0x97977fa491918990U, 0x918d8d958b858892U, 0x8e7e9287958e928dU,
  0x908b8e95ab8e8889U, 0x90928f858a8c8c88U, 0x91839397a5909184U, 0x928d90919a918987U,
  0x8e8790928f8c9880U, 0x878ab1a593957f8cU, 0x84968f939a7695c6U, 0x5c8ea88f558e8a98U,
  0x8486998d97979894U, 0x889299758f7fa296U, 0x908c8fa18f849190U, 0x928e8f8f8d858a8eU,
  0x878f8d9f8f8f9091U, 0x8b908f928c908f90U, 0xb3808b90908f8f8fU, 0x908e91908b8d918fU,
  0x8c8a8e93898d9297U, 0x91948d8fc4959291U, 0x8e8c908e90a69094U, 0x918f8f90909a908eU,
  0x8f91918d8f8f8e89U, 0x908f88958d91908eU, 0x986e96898d909091U, 0x938f8e908b979391U,
  0x888f8e928c908e90U, 0x958e898e8468948fU, 0x88898d8d8d8b888aU, 0x8b929391918d8c8dU,
  0x8f8b898e86949194U, 0xc29382908a8e928eU, 0x91948e90918c8890U, 0x887f8a898c8c878fU,
  0x92928bac9893908fU, 0x8e948d8a88888d8eU, 0x92908f8f8e828f8fU, 0x8c908d928d948e8cU,
  0x938f8e8c90918d8eU, 0x8d8f91959091918dU, 0x8e908d909a8f8f8dU, 0xa48f8c9296928e8aU,
  0x8c8e90938e8f8f8eU, 0x8e928d8f8d928f8aU, 0x938b907379929191U, 0x938d8d90889c8a8fU,
  0x7887899b9191886aU, 0x8e929893738f8e8eU, 0xa4878f78958e9389U, 0x79898a878284908dU,
  0x87649a92897b8990U, 0xc692918e988e988eU, 0x9a91969298925c8bU, 0x99578f6289858f93U,
  0x8c9926919d7b969dU, 0x8d7b8bb0888ba03dU, 0x848f8e988c85969bU, 0x9b978296ad8d9d8bU,
  0x888f969180908b8bU, 0x899391ae96889b8fU, 0x8f848494838eae9bU, 0x9fff8c43728f9388U,
  0x8d8d8890738d878eU, 0x828f978a8d8a9d85U, 0x83908b9490a18393U, 0x8291828cc095888dU,
  0x9190848ea1938e8eU, 0x8e98939293888893U, 0x92908d8c8f9e8c8eU, 0x8f948f91898c9294U,
  0x8f8e92868b8f938cU, 0x8f8f8e988a909190U, 0x7f8c908eae8d8b8bU, 0x988e949a98928e8cU,
  0x8d918b94928e938dU, 0x8f8d918d819b8f8eU, 0x8ea6988a7c878e82U, 0xa27b97769a9391abU,
  0x8c8c8a8f67978e81U, 0x9e94797e907091a3U, 0x9e988c8d8d819e94U, 0x8a7e989b9e9a7991U,
  0x9388aea7a98ba590U, 0x8d8b8da58688928dU, 0x999b8f8d90997295U, 0x92a48d899b8b8e9bU,
  0x8c918e8c8290968bU, 0x9f81b7909e939c93U, 0x978a918f8e9f9198U, 0x96919288898e99b0U,
  0x929088ae8c8e9191U, 0x928486958e96888bU, 0x9c8d8f8f9182958aU, 0x948e8e95909c8b8dU,
  0x90908d8f93908d8fU, 0x8f8f8d938e8e8a8dU, 0x917d8a8877938b90U, 0x9794938d7b95988dU,
  0x888d948a958a928dU, 0x8f848c8e8e868e8eU, 0x8c95919b899d8b78U, 0x8597a693877d969aU,
  0xa7888a9792919194U, 0x938f87ac96bf918fU, 0x7f938e408a879289U, 0x8e92858d91b9948dU,
  0x775e919198916d96U, 0xc691808d928a978fU, 0x9089908f877a92a4U, 0x9a9091908fa39286U,
  0x9c968d8499899172U, 0x84898f9492878c8fU, 0x9f8f909486909285U, 0xaf977c928e949598U,
  0x80898f977c8e938fU, 0x8e998d9381799e84U, 0x8e908f7d8f828f92U, 0x8e8f94908f918d8fU,
  0x908f8d90928f8c8eU, 0x8e8f92928b978f8dU, 0xa08690858d908e8fU, 0x8992938f888e918fU,
  0x8c8a8f8e8d8b939aU, 0x9593878fce9b948dU, 0x808c909190848d96U, 0x7e8b8e849f8c8b91U,
  0x85bd959293995a8eU, 0x88989a8cab92af93U, 0x828691908da38f90U, 0x8390a599898f868fU,
  0x7c919c948e8e8a8dU, 0x8e91928a9388868eU, 0x957f999395778b92U, 0x94869d839a98907eU,
  0x879d8d959c908294U, 0x7c908f87a18b9892U, 0x9c818c8e90889b88U, 0x8b9292948a9a979dU,
  0x7f8e90978b929592U, 0x8f8589897c889d7bU, 0x938a918d95948a9dU, 0x8b968d9395939389U,
  0x8b8c988c8892969aU, 0x898f8c9d8e919187U, 0x8f888b8c82948e9dU, 0x8f91aa998a8b9893U,
  0x81948b94938b8f8fU, 0x8f87928d8b9c9b8eU, 0x8b908e8b948f8e8bU, 0x918d5e908a8c7e92U,
  0x94908db38b90898dU, 0x939092968e8a938fU, 0x9b9b85928c948f89U, 0x9494908c91868f8fU,
  0x908e8d8c8d938a8fU, 0x9593f38f8588897aU, 0x92938e8b868f8a84U, 0x90928c8c8d8c8c91U,
  0xa4898b8a83929a99U, 0x998e96918aad9593U, 0x9193879b8e969096U, 0x968d82929695868aU,
  0x8b8d868990859297U, 0x857f88939686868dU, 0x7a928b948e9cad93U, 0xaa9990707c96908fU,
  0x94838a908393948aU, 0x878b8b938d908f87U, 0x969796908e75948dU, 0x898e8a93a694a793U,
  0x958f899399958d8cU, 0x8b8e8d898f958c8fU, 0x9ca591888c8d889eU, 0x869c8ea1967f94a6U,
  0x907e8b8d9c9181a4U, 0x988e8e8aa3969483U, 0x9586918f84a08b88U, 0xaa897fb2a68e8a85U,
  0x969d99a99688818eU, 0x968285a08c949589U, 0x98908f8b8c998c8dU, 0x887e909394969088U,
  0x9191838c8c8a8c95U, 0x938b949786898e93U, 0x798c928c9e85918aU, 0xb3898e95a791978aU,
  0x8694959a898d8d90U, 0x8e90929284938f95U, 0x8f8f91859092918eU, 0x8d8f94908f949392U,
  0x8c8e908b8e8d8d8cU, 0x908f91908e898e8fU, 0x9b8a8d91918f908cU, 0x948e918d8c91918bU,
  0x918893938f9a9194U, 0x90968c8fc4948d8bU, 0x98908986929e9294U, 0x8b8ea0978e999d93U,
  0x988e918d8e908f8eU, 0x93918f818b918a8bU, 0x60969a8aa08e9295U, 0x938c8d968a90958cU,
  0x979385848e9a8b8bU, 0x967885908c948b9cU, 0x8e8f8fa08f8f908eU, 0x8e8f8b92908c8f90U,
  0x97908eb28f908f8fU, 0x8f908b928f918e8eU, 0x939092938f8f8f90U, 0x8e8e8f8f91969192U,
  0x8b928f8d8d8f8e8cU, 0x8e8c8e8e858b906eU, 0x90918f6c93908f80U, 0x958d7c8e8f997d8eU,
  0xa8888f8385919593U, 0x908d908287928a91U, 0x8a998a918c91898cU, 0x8a84868a8f9a888dU,
  0x9aa19592959d9191U, 0x85949093918a8967U, 0x9192918d99a8918bU, 0x8a90919192ad8e91U,
  0x8e8f918c8a8f8f9dU, 0x958f8a8d8f89908eU, 0x9d698d929090928eU, 0x90948f928b899290U,
  0x90908b8a92938c8eU, 0x8a8d8e90936a8c91U, 0x9192908b905d8d8cU, 0x908d938c97a08f90U,
  0xa3928c8a98928d8bU, 0x8d9290929a8c918eU, 0x8d8e95908f8d928eU, 0x8c8d8d938b909299U,
  0x918f8f8d8c90998fU, 0x8d87948f7d9d978bU, 0x9884987f5cae926dU, 0x8e7b7e7e97917c8bU,
  0x867c6e7a9d9e9442U, 0x7f9c768a7c9d899eU, 0x97b38f778b749b84U, 0x6590b38198b46395U,
  0x7c73a7ada693fe8fU, 0x9c898287748eaf85U, 0x908d8f8b93828f8cU, 0x90908a8f8f827a8fU,
  0x828f8f938f90909dU, 0x8d9195988d998e90U, 0xae8c929d968f8e8cU, 0x92918c8f928f908bU,
  0x89878b8f8e909091U, 0x8c908b8c8a9091acU, 0x8e91878f898a998fU, 0x758c899b6a9b8892U,
  0x85878e95888c9399U, 0x8e9078947e8e8b90U, 0x8c8d8891467f8e95U, 0x838b9293a1899186U,
  0x86898d8f808c9191U, 0x8576909898959291U, 0x8e938f8a9aa08f8dU, 0x8e9190918ea6908eU,
  0x9490918f8d8f8e92U, 0x958f8d93918e8e8dU, 0x9b6d908e90928f90U, 0x9a908d92908f8c90U,
  0x8c918d8b8a928f90U, 0x918c8b8e90728d8fU, 0x978c8e858e91938fU, 0x90925b96908b5e8dU,
  0x95968a7b958b8e91U, 0x8d8b908d909a9290U, 0xa58a6f8c80968e98U, 0x8c97979598919695U,
  0x9489908e8a739097U, 0x949a8b927f9c8d8eU, 0x8387968c8e8f9993U, 0x77858f95a68d908bU,
  0x8c8d888e998a888eU, 0x94969890988c888eU, 0x8e8f908a8ba5948fU, 0x968e948e718d7c92U,
  0x8f8f8d918e8f9093U, 0x9186929a918f8d90U, 0x8e8f8f85928e8f8bU, 0x90917b918f8f878dU,
  0x999091c08e908f95U, 0x8f8f8f938e95908dU, 0x97948a968e908f8eU, 0x9290918f938f9090U,
  0x8c938e8c8e928e91U, 0x9190978e8a908e6eU, 0x7592769b918b8497U, 0x97979291928e9391U,
  0x8a8f9195818f8f8dU, 0x958f86878e8e8f8aU, 0x8878928d9086a493U, 0x86968d92958f9a91U,
  0x898d919397949290U, 0x97978b7f9091908eU, 0xb690878c8491789cU, 0xb6a1978e82829794U,
  0x92878b947e948f80U, 0x868f888d8d88968eU, 0x988993889d8c8a9aU, 0x879695989f8eab8bU,
  0x9e90898b85999f8bU, 0x8d9a8b878b9b9792U, 0x928e8c8f899f978fU, 0x948d90918990908eU,
  0x8d898e908c8a9088U, 0x8a8c939d8c8e8e93U, 0x89908e909d818c8eU, 0xaf9690999d8b9489U,
  0x8a8e8c949191928eU, 0x8c918f8b939c8b96U, 0x8b9292938f8c8c91U, 0x948e918b9188928fU,
  0x92928f928f93948fU, 0x8e908f86908e8f90U, 0x8ca0938f858b9090U, 0x788e8d8d888e8e94U,
  0x9391908e8e908d8fU, 0x928c8d918e939291U, 0x8e88928d988f9994U, 0x948888928d9b8c89U,
  0x799d8f9593859c9cU, 0x8f88559292958092U, 0x7f8f8d90a07e8d97U, 0x4290a0a39b9974a2U,
  0x778e925969909995U, 0x8e9e92948d959889U, 0x8d918f8a8fa38d92U, 0x988f938d938a9392U,
  0x958b908b8e8f938eU, 0x928e98888f918b8fU, 0x85a0928d978e8d93U, 0x859190958b91918eU,
  0x94938c9389929190U, 0x91848c9190929095U, 0xa18e9a9093878c8eU, 0x7b948b898c918d8eU,
  0x8b8e938d8e8f938dU, 0x948f908d8b8d918fU, 0x908c8b8e9098858dU, 0x878d8f928d928691U,
  0x8d8e8e90838e9090U, 0x8d8e92908c8f928cU, 0x93938f928a8d8e88U, 0x84918f9590979194U,
  0x88998a8f8f8d9094U, 0x8e8e8e9590888c8cU, 0x8e908b8c8e928e94U, 0x8f92918c8c917b91U,
  0x938c8287878d9892U, 0x8c93918e90918d8dU, 0x8d9291939a8f9298U, 0x908b8a7588928e93U,
  0x90889a8d8b899282U, 0x998e98968e928f8dU, 0x8a8c889090928f8cU, 0x7f949a8d8292898fU,
  0x98858b8c8d8d8c95U, 0x8c8a918996959993U, 0x8f7f8d84817b929aU, 0x7886a48696448679U,
  0x9c90957a7f9183a3U, 0x89958698928b928dU, 0x919d94a2957c8f91U, 0x7b8a8d7b968f908fU,
  0x6074909b999d8292U, 0x78a196848abc9175U, 0x8f8f8f9096907d96U, 0xa3968c7d81918e90U,
  0x9281a09089829d8eU, 0x8d7c9d918799aa92U, 0x8d8c8d928e939291U, 0x7e908f8ac18a958dU,
  0x97878b958c918e93U, 0x89918b988e939991U, 0x958d8d9286876d8dU, 0xa4ae8a8b7a8f8c8eU,
  0x8e9c8f8f858f958fU, 0x8a8c9a8591929688U, 0x8c8c8e9291958c8fU, 0x848c8994aa93818eU,
  0x848d94969493918eU, 0x8d8f8f8a8f859593U, 0x9894a48f7b9a8d8bU, 0x969094948b95958eU,
  0x9d82919080978583U, 0xb394948c98909585U, 0x979593899488a28fU, 0x8a8471a58f968e98U,
  0x8190908e9b8f9fa2U, 0x9487928b92997593U, 0x948e8f7e8aa09399U, 0x8d8e968e908b9990U,
  0x8e908f8d908e8e8dU, 0x908c8a8f908c8f8fU, 0x989c828c8896908eU, 0x928f919191a29093U,
  0x96a29192918b9196U, 0x8f9d8492b68e8d9cU, 0x8f9191918d8a888fU, 0x98938d8d928a9091U,
  0x96938e9292919090U, 0x8f9090879290918dU, 0x94a69192888f9093U, 0x77938c8f878e8e94U,
  0x988f8f8a928d9190U, 0x8d8a918d8b909090U, 0x8f908f9490907392U, 0x928a8da68e919291U,
  0x8e91a08e918c938cU, 0x8e8d938f90919198U, 0x9191908f8f918e90U, 0x8990958f868c8d91U,
  0x928f8d8f928e8d91U, 0x909191918f949391U, 0x8e91958c8d958188U, 0x9b9893858b859291U,
  0x8f978f8f928a9197U, 0x838b998587948e8fU, 0x9092939086989993U, 0x9d98908b928a878eU,
  0x89919086a8919290U, 0x8f998b908c8c858aU, 0x838d938ea78b925dU, 0x8c889d878c93908cU,
  0x9699929689928c9cU, 0x869292a0a18a8e93U, 0x948a8c948d859288U, 0x87969a909191878fU,
  0xc2848793908ea18cU, 0x888c907f86909d93U, 0x92908d8d8f8f9094U, 0x8b908a929191818fU,
  0x70948e7b8e8f9093U, 0x8e8e949293878f8eU, 0x9c9688938f948e8eU, 0x8b918e8f8f828f8dU,
  0x8e858e928e89968dU, 0x939c998d88978eb8U, 0x978d98958d958b90U, 0x87908e8a918d918cU,
  0x8f979292918b9d8fU, 0x948da28f88939491U, 0x898f8f9088999a8dU, 0x9e908d8a94908298U,
  0x908f918b7390929cU, 0x8f988e9c918e8e8bU, 0x918e8fc18f89938fU, 0x8a8d938f917f968dU,
  0x928f93908b8e8c8cU, 0x928f96948b8b908cU, 0x9888978c9491928fU, 0x9290918b8c8a8f89U,
  0x8e97928f8f7b9190U, 0x8994908d959d8d87U, 0x918b948e8f8b929aU, 0x8e8590888b908e8aU,
  0x8f96948f89928b8dU, 0x84928a929395918fU, 0x918b8e8e9285917fU, 0x89928089878f808eU,
  0x938f91988a8d8e8fU, 0x938e95908c8db08eU, 0x88939099908a9191U, 0x9a8e939189867e94U,
  0x859088a192928c87U, 0x8c908e90888f9191U, 0xac8b8a868d8d8d8cU, 0x909099918aa89193U,
  0x8f86918b88958f8dU, 0x9397969287928aa1U, 0x8a8b918c978a7c8fU, 0x909d8c8d9c8b8e8bU,
  0x8d99898d94968999U, 0x909984928d90888aU, 0x8b948f8f9ea3928bU, 0x978e92977d8d879eU,
  0x869690869e8e8590U, 0x928f8d958b888d8cU, 0x938e8d8e918f8c96U, 0x8a92848c949b928fU,
  0x88949789808e8f9eU, 0x8f8e968b93948e8eU, 0x8d8c8c8c8f998a9eU, 0x908a919396898a8fU,
  0xa18d88889a907d91U, 0x908f99908c92818cU, 0x8c8b8d989b828d89U, 0x99978e8f8bab948aU,
  0x878f8f8d90889b9cU, 0x9589a38f8d949694U, 0x8d8d8b8a82958d90U, 0x9f89878fac999793U,
  0x898d8e9d8589878fU, 0x939d8f978e988b88U, 0x8e8e8e9a8e8b9192U, 0x8e8e90928e88908fU,
  0x848f8d7b91918d8dU, 0x8d918f918f8d8f8eU, 0x9a8c948b90908e90U, 0x8b9190918e8f9291U,
  0x8e918e8d8c8c918eU, 0x8e8d9f8e828e8fbfU, 0x83888d868e8c9791U, 0x9a90949990859088U,
  0x919b868e9a9b7994U, 0x8a987e93938c8e8eU, 0x899a918d8c809994U, 0xa58f988c878f9084U,
  0x919a8f8dac9a8d8dU, 0x9589929983898f94U, 0x8d8c918e9d969085U, 0x939293918fb58d8fU,
  0x958e958d8c908f98U, 0x96918d8b94888f8aU, 0x9b5f8d8e8b939390U, 0x9a9289908f878d8dU,
  0x8c8f8b8b89928e92U, 0x8b8e8d89946e8e8fU, 0x908f8e908f918f90U, 0x908f8e8f908d8e8fU,
  0x8e8d90908e8f908eU, 0x8f8e90928e8e8d8fU, 0x8d908e8e978d8e90U, 0x949190908e8f908dU,
  0x8f8f90918d8d8f8eU, 0x8e8c9091908f8f90U, 0x919090808f959591U, 0x838f94918c8c988cU,
  0x928e8a7d92918d8aU, 0x93908b918e8e8b8fU, 0x7192948c828f8c91U, 0x9a8f938a91918c8eU,
  0x8f918f8489909087U, 0x948a8f9785938b8dU, 0x8a9c86938a9198a2U, 0x8b818d927f9f8897U,
  0x8f8e8e8578978277U, 0x969797778790928bU, 0x828b728487a58290U, 0x93947d9594a7818aU,
  0xa591a493b3899290U, 0x84839b879295778fU, 0x8dac9592948b9b95U, 0x9195879c8a918f3cU,
  0x818a928d8e868b84U, 0x868b8e9d888f9595U, 0x8b908f9390909194U, 0x848a94888b928294U,
  0x808f889c8f989191U, 0x969a8d888a87978dU, 0x998e96919ba4928dU, 0x95938b8984909092U,
  0x8c97939390eba18bU, 0x9095989686969891U, 0x899e8d93857f9a8fU, 0x9c948e8c948e7a94U,
  0x909291915e909a99U, 0x909895b3928d8898U, 0x968890719b979295U, 0x8c9789a083945a8eU,
  0x9585907095919190U, 0x878d929b7cb38687U, 0x86919898938b8c8eU, 0x8e8d8b8890988f9bU,
  0x81878e918ea08a7cU, 0xa4907e916b898d9fU, 0x9c938f8d8f948b90U, 0xef8f938592998593U,
  0x918e908a918d9393U, 0x9a8f828894987593U, 0x979593958d9797a1U, 0x97999694838c8a8dU,
  0x918f8b8f80909391U, 0x949287898a949287U, 0x8c8e938a95918f90U, 0x7b908d91958a8f8cU,
  0x8d8a8d8f8f98998cU, 0x8b997994928c9290U, 0x91928e8fa4a6908eU, 0x798d959c888f8b9eU,
  0x8e908f8c858f8d8eU, 0x8e8c91908b8d8e91U, 0x8d938e7e9690948eU, 0x85908c97838c9293U,
  0x8b8c94868f8e8b8cU, 0x9490858f83928e88U, 0x78958c8c7a948b8fU, 0x7d8f8d83958c8c90U,
  0x8f8e8c7e8d918d8dU, 0x8a8d93888491868dU, 0x99898e8f8a88a390U, 0xa77b8c8c7a8c918bU,
  0x8d8e98918e8b878dU, 0x988ca1959d959392U, 0x888a9191919b8c90U, 0x8195928faf8f9390U,
  0x8e878f8b988f8e8dU, 0x89998fa490898e8eU, 0x7b8bae8c87959889U, 0x6a8b8d8e9b8d8c86U,
  0x84948394938e7d9bU, 0x9d989688898b9995U, 0x8f8c8e968e94af97U, 0xad89879b4b918398U,
  0x858a9d938b8c8c97U, 0x88848ea98691848dU, 0x8e918b8e958f8e8eU, 0x9d918d8a8b949092U,
  0x8791918c8f937d8eU, 0x89a48b8e8a8e888eU, 0x91918c928c858c8eU, 0x8d8e918e8d8f8f8bU,
  0x8b8c9094968d928eU, 0x8d8f90868d8c8d88U, 0x968f905e90939194U, 0x8e93ab9783988992U,
  0x7e898f9293899185U, 0x968d918e8f94938eU, 0x7c67839694968d85U, 0x9b8f978c8f888f90U,
  0x97998e908990a487U, 0x9587738a90a28bc3U, 0x938d8f7ea07a8e8dU, 0x898f82928b9a8289U,
  0x94908d88938e8fb1U, 0x9790979b99838c91U, 0x997a8d9092878e87U, 0x8b87888c918f9192U,
  0x89878c8e8a89998eU, 0x88977e8d8aa69189U, 0x90918d808f9b8d8eU, 0x8b9396908a8a9a90U,
  0x858a92798d8e8d8eU, 0x938d938a8e90908cU, 0x8892888a90928d8eU, 0x8492908b89868b8cU,
  0x96858b8c968f949aU, 0x9292858cd19c8b84U, 0x8f8c89908f927d8bU, 0x90a295977f93918cU,
  0x8d8e869098949182U, 0x8f90868d92868c93U, 0x9897958f94bc888fU, 0x788b889d978f9ca6U,
  0x8d8e878f9a939589U, 0x90938f858d91838eU, 0x9390888e8393908aU, 0x86968d9d89769290U,
  0x8d8f8897878b8b85U, 0x958d8e9388908989U, 0x829a94839485868eU, 0xab938593a18c8585U,
  0x928e8e8c8b98908dU, 0x968f958f91928894U, 0x9393948d9a7e94bdU, 0x909b8faa83a1869aU,
  0x9091888c938d94a9U, 0xc08e93a982928293U, 0x8e9c8e9f988a9083U, 0x930185889c8562a1U,
  0xb7988da1837f7195U, 0xa8928ba5847a888cU, 0x8f8f8d8f9288918cU, 0x8c8f8c908aa58d8fU,
  0x8f8e938e8b8f9391U, 0x8e8f9496928e8b8eU, 0x94838d90a18c928bU, 0xa08b8792968e8c88U,
  0x8e8c8c97938b9091U, 0x8d958e8f8f8e9189U, 0x936d8e7567848e76U, 0x8d858f848c8b957aU,
  0x8692777c9f908066U, 0x7f939796609a899aU, 0x9f79878a9692927aU, 0x738f897f92b29790U,
  0x6c8d999094928b99U, 0x8b8374836791ab71U, 0x89938d898db08e8eU, 0x90918e9491968e92U,
  0x908b8c878b8c8f90U, 0x8f9189968f8e9490U, 0x93749092998f8c8eU, 0x888a8f9096909190U,
  0x8c8f90918c8c8d8cU, 0x8f938d8f85778d80U, 0x989082917d9e8b8cU, 0x9f8c9789bc8a8d8aU,
  0x888d7aa2958196a5U, 0x8c7b646a9b879a99U, 0x95a8999085938ca0U, 0xa28d8c92ad7fae98U,
  0x969a859792959a77U, 0x998584a7a29d8fa3U, 0x8f8d8f878eb48d94U, 0x92918f8e8f8c9190U,
  0x89928f8e908f8f93U, 0x8d8e888b8f948f91U, 0x9a8390908b928f91U, 0x8c8f8e8f8e8f9090U,
  0x909490928c948e8fU, 0x94918e8f926d938bU, 0x99969390998c9690U, 0x8c86939091909196U,
  0x9a9e978e92889a97U, 0x8b8984967e988788U, 0x9493929698889390U, 0x85878c9894898795U,
  0x85939d9c9590838cU, 0x908d8c898f8f8c8fU, 0x908a8a8e898d4a93U, 0x92838d967f8c8f8fU,
  0x888f9591828f888cU, 0x8a90938b8d8d9493U, 0x89918f9190958c8fU, 0x878e928ea190878eU,
  0x8e8f8d8f9490928fU, 0x8f94908b8f8a8b90U, 0x938e9a898e79b476U, 0xa0d78bd497898b91U,
  0x939fb48da8779b9cU, 0x966e998f7f9797c8U, 0x828e8c92967f9d96U, 0x8797a2919389898bU,
  0x878c9a728a8d919aU, 0x83a893b78e729889U, 0x8f8e8f888f4c9193U, 0x958e948e8fa3918eU,
  0xa0908f8d948f8f83U, 0x8f8f9494898c908fU, 0x8480908d90908d8eU, 0x9a8f91958b918d92U,
  0x888e8e8c8a8d998eU, 0x8d888a8e87b6948cU, 0x968f898e92918c8dU, 0x908f8d8d95898f8eU,
  0x9490909395929294U, 0x8f919281948f918eU, 0x99998d928c989990U, 0x7b918e8d888a9091U,
  0x968f8c8f8a8f8f8eU, 0x8f8d908f958f9495U, 0x10fa00002a68U, 0x1a2400000bbfU,
  0x2cb2000010abU, 0x195e00001937U, 0xfffff7b9000030f7U, 0x46cffffe5ffU,
  0x286c00002983U, 0xffffe210fffffe3dU, 0x9ae00002ad7U, 0x3530000031aeU,
  0x532fffff0b3U, 0xffffd690ffffd56cU, 0x7afffffda6bU, 0x71e00002e8bU,
  0xfffff70000002b71U, 0xfffff8a0000028f3U, 0xfffffd92fffff858U, 0xffffefb7000021a8U,
  0x292000000044U, 0x7d200001d28U, 0x52d80000364cU, 0x3ce00004891U,
  0xffffd6e6000048d8U, 0xfffff5200000225dU, 0x2f500002119U, 0xfffffeb900001d30U,
  0x1ef9fffffacdU, 0xfffff23900000f4bU, 0xffffffa2ffffd95eU, 0xa55fffffe8eU,
  0x10b00001603U, 0x23c700001e29U, 0xfffffc800000394dU, 0x1a04000039cdU,
  0x142900000c15U, 0x369000000768U, 0xffffeb3f00001005U, 0x30530000299cU,
  0x2bc700000633U, 0x239900001c51U, 0x4f90000376eU, 0x147500002d9dU,
  0x2492fffff0b1U, 0x1790000008a4U, 0x7fb00000497U, 0x47d00000b90U,
  0x6a800002a1eU, 0x1159000023b9U, 0x1367ffffebc3U, 0x2678fffffdbcU,
  0x26af00000ddbU, 0x14c600002d0bU, 0xffffd91effffed7cU, 0x26f7ffffc932U,
  0xfffff00600003debU, 0x21eb0000201dU, 0xffffea3bfffff75dU, 0x143b000016c6U,
  0xffffdbfe00001ee8U, 0x5b680000077dU, 0xffffd5f500002359U, 0xfffff79d000017e7U,
  0xffff8d1c00005334U, 0x1016000028c4U, 0x9997949799969996U, 0x9692988e9a969899U,
  0x93999c9d99969c9bU, 0x9a969c9a99959d99U, 0xa9959a969d989d9bU, 0x97969a9994989698U,
  0x979a9696969a9697U, 0x9b97ab9494959b99U, 0x979d968b99979295U, 0x96969c9d99a2999bU,
  0x9992969b96999799U, 0x9897979797989c98U, 0x99989e9da099949bU, 0x9d989c9d9c999a97U,
  0x9a9d9a93999c9599U, 0x99999a979a989998U, 0x9a939293939bcb92U, 0x9989969b9a94998dU,
  0x9297949692979895U, 0xb18a869b9397989eU, 0x858db295a299ae94U, 0x9b93949a98969d9aU,
  0x8a9b9c94969c8797U, 0xac8eb7819798a69aU, 0x9096968e94949c95U, 0x999ac4bd9b8e979bU,
  0x9495989495988f96U, 0x90939a94928d9492U, 0x999b8d9194b18497U, 0x92968cb1969ba09aU,
  0x9ec296939b979f9fU, 0x8f979d9694969c92U, 0x999695959a989f98U, 0x979297a298979896U,
  0x949996949896949bU, 0x9e959a99999a9497U, 0x98969c9c9d989e99U, 0x979796999c989b98U,
  0x93999a9590989597U, 0x9c959d9395989998U, 0x99949b909c969495U, 0x97969ba09a98989cU,
  0x989a9b9996989898U, 0x9798999796989998U, 0x98989498969b959aU, 0x99989b9e95989c98U,
  0x999f999499959597U, 0x9a989699989a9a96U, 0x9791949193969393U, 0x969d989999969a90U,
  0x9298adb39093ae95U, 0x9795919c9682b29bU, 0xce9a957fa19896b0U, 0x9a8e959a81969e99U,
  0xa59a91928e9b9696U, 0x9792ab97938ba299U, 0x9ab0888780958c94U, 0x9795939499be9299U,
  0x98977f9a92969195U, 0x8d9392938fa79d93U, 0xa19aaf8eb497959bU, 0xbb989095ad949c8aU,
  0x9c8d9a9098ac9f92U, 0x91ad9e9596b49f8fU, 0x6f8cadb970b07177U, 0xa6aabc87aa85adb5U,
  0x947d8a9387b7965cU, 0x9091899d73b995aaU, 0x5fb28f96bcaf9388U, 0xa8b9d1a6988fa6acU,
  0x9db1a57effa895b3U, 0x948dd39a7db991aaU, 0xba9499ac9193bb99U, 0xb6c67485a483b784U,
  0x73b397818eb98ca9U, 0x5e7db579bb8e7888U, 0xa6a48a018887977aU, 0x76ab739295bdb0a7U,
  0xaf79a5b9ae97c5a9U, 0x7995a680739680bbU, 0x9791919493999195U, 0x9b9d989995969a91U,
  0x9395938293958498U, 0x9595919b9090809cU, 0x9c9b96b49e989692U, 0x9a93939aaf969b9cU,
  0x949a9d92969b9395U, 0x9791b5969b968e99U, 0x9884ae8ab7949294U, 0x949494939a8a949aU,
  0x9995b39593959198U, 0x9094979394a49994U, 0x97998d8d8d97969aU, 0x9698909685979b97U,
  0x9d919a8f9886a79dU, 0x8c859e95977d9e94U, 0x9899949799969a97U, 0x969797a197979899U,
  0x94989b9c98979c9cU, 0x979d9a999a949d98U, 0xa59698959b98949eU, 0x96979b9994989a99U,
  0x9e98949697989c97U, 0x969d9c9d9c969798U, 0x949b968d99979197U, 0x99979896989f999cU,
  0x989b9599979a9a98U, 0x9b99979795989a97U, 0x9998a1999c969d99U, 0x9a9899959c9a9796U,
  0x9b9c9895999b9b95U, 0x9f9a9698989a9999U, 0x9d92909096959195U, 0x9a9595989296988fU,
  0x8d98959793919798U, 0x88b0b89b9393969eU, 0x889e87959d958893U, 0x988d959b96969a9aU,
  0x9c998e95889bad93U, 0x88b2a7aeb48b8e98U, 0x8a97978391948194U, 0x929896869990949cU,
  0x9996979d94958d95U, 0x94938f96948fa095U, 0x9d9a9c919291ae9dU, 0x90958e8696979699U,
  0x9a8e999098979b8fU, 0xc3979b9596979d8eU, 0x999894969a969896U, 0x9997979196989999U,
  0x959a97959797949cU, 0x949d9c999b9a9498U, 0x9998969e9f989395U, 0x9797999a9d98979aU,
  0x9898949696989f98U, 0x95a19c9e9d979698U, 0x95959a939d969097U, 0x999799969999999dU,
  0x98949c9897999a98U, 0x9998969799989b97U, 0x9898969a97979d99U, 0x98989a94959a9699U,
  0x9b9a989599959d96U, 0xa297999898979998U, 0x15c00000ccbU, 0xe54000002eaU,
  0x6f500000609U, 0x167400000634U, 0xfffffc29000008deU, 0x7ac00000d74U,
  0x8d00000b86U, 0x5000000dbU, 0x1300000dbcU, 0xcb50000049cU,
  0x30000004fU, 0x606000009f7U, 0x22fffffd4eU, 0xc1900000113U,
  0x19900000003U, 0x60fffffff8U, 0x49000000b6U, 0xfffff8ba000000c2U,
  0xefffffff5U, 0x13efffffbdbU, 0xfffffb10fffff86bU, 0x2d0000097bU,
  0xfffffce0fffffd4fU, 0xffffff4900000791U, 0x3400000368U, 0xfffffc12fffffc79U,
  0x1e90000157cU, 0xfffffec8U, 0x88fffffe8aU, 0x39aU,
  0xffffff4effffffd1U, 0x1000000109U, 0x50e000006a3U, 0x1100000686U,
  0xb000000a5dU, 0xfffffcf800000050U, 0xfe0000095eU, 0x2ffffffd8U,
  0xffffff1500000072U, 0x1a6fffffe46U, 0x80f000005d1U, 0x7e6fffffd72U,
  0xffffffc000000755U, 0x11790000033eU, 0x71f00000843U, 0xe5000008edU,
  0x38a00000cd7U, 0x117f00000bdeU, 0x2d0000106bU, 0x1a00000019U,
  0x14800002928U, 0xfffffb6bfffffe2bU, 0x1d5U, 0x45fffffe5bU,
  0x135900000014U, 0x7f000003a7U, 0xfffffc1bffffff02U, 0xffffffb300000022U,
  0xfffffe460000086fU, 0xfffff92f00000041U, 0x96a00000407U, 0x10c00000004eU,
  0xfffffb2200000996U, 0xffffff4200000035U, 0x7f8a848b918b8a8eU, 0x85928e9685868b8eU,
  0x9690888092917e87U, 0x7f7c7b7889818082U, 0x8a86828592908588U, 0x8c90897f7ba07788U,
  0x8b82868a7895837eU, 0x7f858f7b8585808dU, 0x86838483828c868aU, 0x818b898390827b80U,
  0x83977f848f869586U, 0x8d978186827c888fU, 0x8a888c9287837f89U, 0x89958f8383888b87U,
  0x81828190887e8697U, 0x8081938b8d838484U, 0x8081859a857c8070U, 0x877b668c89917e8cU,
  0x87908b867a878982U, 0x8b85908890858d89U, 0x8688928a807f8d82U, 0x8b98867c8b868e86U,
  0x83848b7f8d859292U, 0x8f94828f8e868489U, 0x918c888d8f818b85U, 0x7792828c8c88887eU,
  0x9d7d90908c867a97U, 0x9084918580929096U, 0x8e8489828a839191U, 0x89898f878d898586U,
  0x89898a878d8b8d8fU, 0x81888d88878c868bU, 0x7f87809b838e8280U, 0x898c5d7e7477797aU,
  0x71718a839c869086U, 0x8f90888695898b6bU, 0x8a81838f447c8791U, 0x7b91818085796b90U,
  0x8187898084818051U, 0x8f85848f867d8d64U, 0x9e8e868a80a0927cU, 0xcc9888885d909f77U,
  0xa197848c71838a84U, 0x825d887d8774917aU, 0x8b988a4e888f8b93U, 0x928463868b808c95U,
  0x938d998991828989U, 0x95827079827fa09aU, 0x8089888583868984U, 0x83828970898c8583U,
  0x8b83868b7f828c87U, 0x8e888c8984918e8cU, 0x8c868a9086888d87U, 0x839087858b809b89U,
  0x828585878b8c8a87U, 0x8c86898f8d899584U, 0x818e978588838d87U, 0x8e84818c878d8a85U,
  0x8d618b8480888986U, 0x838a847e89918683U, 0x7b8782888c918e89U, 0x928c848e88898b95U,
  0x89858484888e8582U, 0x8a8a788389858d86U, 0x89918c7e7baf8392U, 0x6076858488897e94U,
  0x7e6f9d8696878d88U, 0x7d9da47cad8e707fU, 0x978283898a8b7e6eU, 0x7e85867383887d81U,
  0x7d97be8a757d7e89U, 0x8b877b96977d8d87U, 0x909090817f8ab87dU, 0x7a7d7a828e968f7dU,
  0x8982888987828186U, 0x807abb8575795d97U, 0x8590948b978d7791U, 0x96888379897b9a8dU,
  0x8d6f908d728a88b6U, 0x7b7f858b797a797fU, 0x8989887f83998585U, 0x83888988d3858887U,
  0x8f8b858a8a849188U, 0x8c8e868e87888187U, 0x888a8390888c8d8bU, 0x8181898a7d888b83U,
  0x8798dc937a8b8a87U, 0x8b8a8687898f848bU, 0x84798680868a818aU, 0x84828984878b8586U,
  0x8a88888095868e91U, 0x8888a887918a7e86U, 0x8a83898c878e8f8dU, 0x888e8f82868c8586U,
  0x84898e898f8e8a71U, 0x8b8f8d8b8c8a8a80U, 0x808299877c838587U, 0xad918e868a948988U,
  0x88889e8b95908b89U, 0xa37d84809093867fU, 0x968f87a88b898a51U, 0x86978a7b7a8887a0U,
  0x899696899c867988U, 0x8077948093c7798bU, 0x8184807694809574U, 0x88868084909f998aU,
  0x7f8a80667c918382U, 0x87826b838789877fU, 0x837a968289867e8fU, 0x858d8682848e8f88U,
  0x87897c8280798b9eU, 0x8d8a878a897784a6U, 0x93ac7b8e86988a85U, 0x817abe7293458a63U,
  0x85788d878ba88075U, 0x8493946a8572868aU, 0x7b8b81888db78884U, 0x919b7a75858e8089U,
  0x8a808c887c7f7e80U, 0x8d8478867e8d7696U, 0x90867e9181918c70U, 0x84878a9895a5847eU,
  0x808ba38b7562607bU, 0xac837a817784788eU, 0x857789958e6e7a8aU, 0x987c768384728f8bU,
  0xa37b86a168858a9dU, 0xc087858e6388af9dU, 0x7f7a8c8e8b85888bU, 0x858c938c898b8a8dU,
  0x8a8f93869788888bU, 0x7e878b828a7f797eU, 0x9e938f8988818d9cU, 0x93878a828b8e838bU,
  0x7e898489819f8a8dU, 0x838d8a8a848d8187U, 0x8284968383948a85U, 0x8695937396948376U,
  0x947e7f8a8e858088U, 0x908b80858b917a96U, 0x5a818a86888d9886U, 0xaeb37e86797f8b89U,
  0x7b8d8c8895818097U, 0x7c938d939189828bU, 0x8286808385878c7dU, 0x8688888b8a8a8788U,
  0x86898685858d8b87U, 0x8789888b8b898b8aU, 0x8885878a87818886U, 0x898b8b858a8a898aU,
  0x89898882848d8a8eU, 0x8687878a89898989U, 0x8a89878984878b99U, 0x917e888889848e8dU,
  0x878988868f868d8cU, 0x87898c8487898994U, 0x8a8f848680878a8dU, 0x87878889858a8887U,
  0x8c84908b898b8a87U, 0x87908a8a84948493U, 0x8b868490828f8d8aU, 0x8e8b9f8e87757d85U,
  0x867f838e868d8990U, 0x928d889b848d8779U, 0x87998f8b81698c8aU, 0x8a768b958c898f83U,
  0x9d927f848a86859aU, 0x8987838586808b79U, 0x9a88848b8c8d7e83U, 0x917f8a83828b8f94U,
  0x938e8b7e81868187U, 0x87788b8b87828d83U, 0x8b778b8a89978883U, 0x7f9c7d908c7e8285U,
  0x87938e8385898676U, 0x7b848d839c848f85U, 0x79908c948789898bU, 0x8a89948d8589828dU,
  0x8a907e817d93808aU, 0x8a8f8a8b88857f72U, 0x768484878b6e8887U, 0x856e8e8885808b8bU,
  0x348d878b85908791U, 0x88888a8a8b858283U, 0x7f7d1183918f8486U, 0xa0a29a8e8b7d8094U,
  0x7b7f858f86938787U, 0x898f8a7d8787868aU, 0x85748d877a958978U, 0x8ca6928e8a7c8676U,
  0x838b858c86828987U, 0x8c828a8c788d969cU, 0x8a88c89082859366U, 0x8b97bb6084709f80U,
  0x90808583719b8180U, 0x7b7570977f808276U, 0x7d897e807f968286U, 0x7499957d82856d82U,
  0x91927b86a47b866bU, 0x7c7d87858f968379U, 0x8a7e7e8e7f7d8574U, 0x85667b916f816fa0U,
  0x98a77d83658b6c4eU, 0x78709d83a0599684U, 0x817c867e77787f70U, 0x8678847c85898185U,
  0x967968837082a07fU, 0x7d907784609594a5U, 0x7b78b99875707977U, 0x8c90a38d8e847972U,
  0x8e85968b898e8d7cU, 0x84a1869382998b7cU, 0x7f8f7082958e8488U, 0x72a47c69887a7a7dU,
  0x85908c78947683adU, 0x7e877f898c8d8794U, 0x95878b8e87939099U, 0x8e9484a28d8f8580U,
  0x9c81808575848469U, 0x7780837693838d7aU, 0x757f908c93908185U, 0x8377768c88818b88U,
  0x867993787a8a8386U, 0x87888278967f9c89U, 0x948e8b83898c8987U, 0x83816b848288918bU,
  0x958b8b90858d9c82U, 0x838f888c8e9f999bU, 0x8d7c85978fb48189U, 0x858885879a8b8786U,
  0x7f878488817a8881U, 0x868b8e84878f8d8eU, 0xa0989480947f8892U, 0x7b74838785977f99U,
  0x8088967d85898d8cU, 0x858e8d8685918586U, 0x898c908f92858996U, 0x9b74898c92938292U,
  0x8c7680858c988388U, 0x849383859292808aU, 0x8b778f98817e8a84U, 0x8b88969a8a8b8e8aU,
  0x888e8e8f8d7f8b8eU, 0x7f868984868d8b8eU, 0x8e8e8986869e838bU, 0x7d9f8f918e8c8686U,
  0x938189848587887dU, 0x8986848280938b85U, 0x828c868688838c8bU, 0x766d7c838392818aU,
  0x857b8e8c78719087U, 0x847c92858dae8481U, 0x879091888c7b8799U, 0xad788f899189879dU,
  0x89837e8c86868487U, 0x7c837d8c9184878fU, 0x907f897a8b8f828dU, 0x889184858c6f9f89U,
  0x878e888a96867f86U, 0x888b88848f8c8576U, 0x8972858384888183U, 0x868a9b7c8b84828fU,
  0x88868a8d7e8581a8U, 0x8888808b89928c67U, 0x8b838b8b848e8d8aU, 0x8d7587858d8f8893U,
  0x8490818a7890848cU, 0x917789918c7b8288U, 0x75858c7f8486867fU, 0x818b8b938c998587U,
  0x80837b938a857f83U, 0x927d828765809981U, 0x90a28e897f77858fU, 0x7876808f97a07884U,
  0x8b8e8481838a9981U, 0x82738693867f8a8eU, 0x8373838d8cae7985U, 0x709b5f8f83847492U,
  0x7774928f84998e70U, 0x8991858782968b7eU, 0x83917e908c82928fU, 0x777f6589aa868266U,
  0xa6768e807d85a474U, 0x7a738a7797908780U, 0x8e95818b9275768aU, 0x877f92717a90768fU,
  0x94878d868197848cU, 0x998a757f7889968aU, 0x86838b9088808688U, 0x88878086868c8c94U,
  0x888e868a85818887U, 0x8787918883868a88U, 0x8b8a868886748988U, 0x818e8e9587828784U,
  0x878f8a958a8e8575U, 0x818786878885888bU, 0x8f88868b89898f8eU, 0x857c8e8481877e8fU,
  0x828b8789848d868cU, 0x818686898d838586U, 0x8a928a8b8b858591U, 0x8a938e8c868c848cU,
  0x84878d8a8b878489U, 0x8682868188818b83U, 0x907d848679958a95U, 0x95858b918690917eU,
  0x8a9384888775838eU, 0x82878c82a9838982U, 0x89858385828b8786U, 0xa88887858582897eU,
  0x8794899482828e76U, 0x7f889188898e888bU, 0x828c8a91878c8781U, 0x8995878c818e7f94U,
  0x8b8a8b938485827fU, 0x86859d8d82879583U, 0x868f8a8888898e70U, 0x8b8c8b8c8688848aU,
  0x918d86987e8a9189U, 0x8d878a8498849182U, 0xb2868b9d8e8d0391U, 0x9486858a8b817f80U,
  0x8885898b81a48a87U, 0x848d898c86878c83U, 0x87a4948b87768288U, 0x8b98818d8a85858bU,
  0x828687828991858fU, 0x76838a86818c8c85U, 0x7e8b8c8c87918999U, 0x89897a8793879f88U,
  0x7793888b97808f7fU, 0x848d928a87888e8eU, 0x8784878a898a8582U, 0x897c86898a858b8dU,
  0x82888d8b828b8e88U, 0x838880888f898364U, 0x8b86868f85888b84U, 0x83888f8688898b8aU,
  0x7c888a8d848c948cU, 0x86888693928a8e88U, 0x8e8b888b7c8e8b85U, 0x888e83849284877cU,
  0x88898a8a83838b8aU, 0x858a83898688898cU, 0x8a8c89898c928787U, 0x888f8b89878b9c86U,
  0x8b8a8e8f818a8389U, 0x878590888b8b8b87U, 0x8a8b8c7f888d8788U, 0x8987878b8a838888U,
  0x8d918c8389878e81U, 0x898f8785878d8986U, 0x889084888a88878dU, 0x83828c8e8e948d8cU,
  0x8c8989828f828489U, 0x84878a868682858eU, 0x898a8a85898a8688U, 0x88877f89848f8988U,
  0x868684908f838694U, 0x8e8681888a8b828aU, 0x8381848587848a8eU, 0x7d8f81859289a17bU,
  0x86858e8a867d8886U, 0x8b8e8e927f8a7e99U, 0x8392868284868a75U, 0x8282898380828685U,
  0x8485858d82848987U, 0x888b8791858d7f85U, 0x808d8e8a84838487U, 0x8f8a84998b838586U,
  0x86888984838e8682U, 0x838a878e878f8693U, 0x8b858784878e8488U, 0x847b888682af7986U,
  0x8c8e8787828a8289U, 0x8888828389817d85U, 0x87879589858d8984U, 0x6b808d88928b8977U,
  0x8fcb868d8797988cU, 0x8c8c898581898886U, 0x828c9084898b8375U, 0x89918786898a8596U,
  0x8a8a828b86868789U, 0x8a858b5a87868b92U, 0x8d8e90888d908a86U, 0x8589718789899283U,
  0x868385888b7e868aU, 0x8c84888280878484U, 0x82908c8a879b8a8aU, 0x888d8e868c7d8785U,
  0x89898386898b8a9aU, 0x8b8b88888c898a9cU, 0x8c84868687868188U, 0x8c7f8b8f8e847980U,
  0x738c8a88899b8882U, 0x8c798888828d8785U, 0x869087898487897eU, 0x868a8286909c8f85U,
  0x8888858594878587U, 0x8c8e87829789857fU, 0x787c8a8b8d878c85U, 0x868c889288829e95U,
  0x878186858c8a8b93U, 0x8d96898a8b819082U, 0x93919888848a948aU, 0x8f907e8386706d81U,
  0x8c838885868d8d96U, 0x958d82928684848bU, 0x8684928495868f87U, 0x7f91888d787a7c86U,
  0x7e91908e7e888d82U, 0x8b9d81958488878eU, 0x898d7a8c7a938e89U, 0x808c8495978a8388U,
  0x898a8d7e6c8b8a89U, 0x8b8596a792888c80U, 0x868d8f8c8b908391U, 0x91909a75828c8896U,
  0x998585817b968187U, 0x8b8894838e75826fU, 0x848f82878f628a80U, 0x8388878e7b699c89U,
  0x6489838b89908790U, 0x7e83908e9682927fU, 0x7b7f8185838e8688U, 0xb4938d848b828790U,
  0x893e798e8c9e927dU, 0x8887918c8f8b8392U, 0x8c7374847f8d956cU, 0x6b7c9a8590808167U,
  0x9191859a7d858985U, 0x8c846b908489829fU, 0x87878b84877f8f7bU, 0x63888a8585878996U,
  0x8d858c8589856985U, 0x8b888583978b8b89U, 0x8d8b838d878d6e7fU, 0x7e89888188888850U,
  0x858c8d8585857b8dU, 0x82888e88847c848bU, 0x838b8789877d8b86U, 0x858d8a8f8b858384U,
  0x8e85899e8988867eU, 0x90899891d78d898fU, 0x7e878f8388878783U, 0x8e87908e85818889U,
  0x90898a7e899b857fU, 0x88828d888a8b8ea1U, 0x7784868d91958988U, 0x83927c9383779181U,
  0x898187828477899bU, 0x8e888d8b84848688U, 0x838f8d8b7f798c89U, 0x7f8c768a87929389U,
  0x889688948782868aU, 0x898485898782808fU, 0x8a84838189918883U, 0x7d8387898488c094U,
  0x76828a8e89819687U, 0x8895859688848a89U, 0x897a7a8684828983U, 0x7f848b8c8f898383U,
  0x8389888e6a898f88U, 0x8686938b9783877dU, 0x9a849e9e7371837dU, 0x71898c88ad7f8f86U,
  0x8871848182818e7eU, 0x8e8f808e7a81928dU, 0x8b9c8a858381856dU, 0x8a838f81898b8b7bU,
  0x82a4988ba68c7b8dU, 0x8c8a8b8d729f8584U, 0x84978a4f878c7e89U, 0x8b848d918e868c7fU,
  0x86898c6d95847b93U, 0x8b88748e77839a82U, 0x8482888b8791a096U, 0x8c87957f8b7f9891U,
  0x8e7d8f7c798c7f86U, 0x8b808f8f8a878586U, 0x92798582808a887dU, 0x8688878b8b878485U,
  0x7185889078819388U, 0x8f958b9c81889288U, 0x8e848f8e778c8d86U, 0x818987818e857e80U,
  0x8f94888d8c849090U, 0x8d8f85938a867f81U, 0x8b91927f8c7d8681U, 0x88858994848b8e90U,
  0x8e979287758b7e8eU, 0x7f7f897d8a89877cU, 0x96878674938e9382U, 0x8d7b8594938c8288U,
  0x8c948a8690938587U, 0x8e8e8b78858b8387U, 0x74828b9f94988c85U, 0x868d8183a775829cU,
  0x809389859090868bU, 0x85928d9a71878c85U, 0x81858382848b8179U, 0x8e8e838e86868d80U,
  0x8572b4878585847fU, 0x818e8f778a8f8b84U, 0x874f859e828c8789U, 0x889b87888b8a8786U,
  0x92897e757e8c858aU, 0x8a8b8d837e8ab98aU, 0x7e95927e93878985U, 0x8e8f828286858985U,
  0x7f808090958c836cU, 0x838887868e898697U, 0x86818d908b898987U, 0x8d8d9890868a8c89U,
  0x88888c869189888aU, 0x8c8d898d83838482U, 0x888d908b866f888cU, 0x9189857f89858684U,
  0x8980867b848b8a8dU, 0x8788878787868796U, 0x838585868e868399U, 0x8e7d928786847886U,
  0x898c8b8984888785U, 0x847e887f868a888bU, 0x857d8588898a8587U, 0x8a89898b88898b86U,
  0x859084847d8a8782U, 0x8d8c86878f8e8987U, 0x7c948f92908b839eU, 0x9f8b917a87889092U,
  0x7e8c817d9d8d6a89U, 0x72837b9b91786b7dU, 0x867d7679937d7189U, 0xa09997846c888292U,
  0x826c829884897075U, 0x728581687f7e7f86U, 0x846b848177b88892U, 0x7b888774757c9178U,
  0x978e6b8592937c81U, 0x8a9a898d83858e7fU, 0x977b848f8683657dU, 0x7d8b8c7f7f8f847cU,
  0x7b817c728073798bU, 0x7e6f7a8986748d93U, 0x63938b7574709262U, 0x89877e8988a17ba2U,
  0x959991858f788e96U, 0x8e8e839690938682U, 0x80867e958b728b90U, 0x8e7a7c808c93807dU,
  0x8d998e9d92868e77U, 0x777c848985798896U, 0x898a887286898942U, 0x676584908a837b8cU,
  0x7879837a8a879187U, 0x8d8f88a1897d9f79U, 0x8a96819b878e7f99U, 0x838291988d8e8885U,
  0x8f748498898a8392U, 0x81937a8e7e8a7bd7U, 0x867d859287818e88U, 0x82907c85857490a8U,
  0x8993867e8899828eU, 0x8683849288806d84U, 0x708a92a387a28f4fU, 0x70817c7e7e8a8698U,
  0x8e96818184808e7fU, 0x8e838a87808d9297U, 0x889485a077879183U, 0x7b938f8b88898b82U,
  0x8c7e6e9181859390U, 0x8b99b38988815d8eU, 0xa38f9588978d988bU, 0x7a8487938b837278U,
  0x81887d83878e7c86U, 0x887f82978b9e8e83U, 0x8894716e8884748aU, 0x8794aa9e7f9f8b52U,
  0x7e768fa482b3847aU, 0x8b8a94a595959792U, 0x97846f90947f8691U, 0x828e7a8193617f89U,
  0x897b968789918882U, 0x8c8895849f847870U, 0xa297918c8687938dU, 0x81a2a6a364a7859aU,
  0x927496827d959c95U, 0x94728b587bab8b7cU, 0x8f749a8e8c9d8d7eU, 0xa09c7e8b8a808c9aU,
  0x878d98936e867e8dU, 0xb083735a948bb596U, 0x988a87858f868985U, 0x898e878382908b8fU,
  0x848a968f82838a94U, 0x8384878689aa8d95U, 0xa2878688849f838bU, 0x8b7c8c8a8f8b8286U,
  0x86898a7e8a7b868aU, 0x83878680858b8a8bU, 0x8a8b8f88878a8388U, 0x8978868781988882U,
  0x868f85868f828f85U, 0x88888d8987919087U, 0x818a8f8592857f8eU, 0x988a8f81998c89a0U,
  0x858a828a8a8a8989U, 0x887e828b837b8e82U, 0x9186848d838d877fU, 0x8d8c8a87888b7e8dU,
  0x60838c8c88838786U, 0x8889989388908987U, 0x94878f8972868a89U, 0x868d867e90828489U,
  0x89888b9789858b91U, 0x8590898c8b8c848fU, 0x898888888da48b8aU, 0x7e8b8d967d8ba791U,
  0x908989817a8a8786U, 0x8078877f8b888b81U, 0x89948c6d8c8e8983U, 0x8b83888a8889818dU,
  0x8aaa8e7883878689U, 0x8585858487858689U, 0x8d848a828b8f8a7eU, 0x867a7e7785938882U,
  0x8182868a87838b96U, 0x898b888b76878783U, 0x8a878e8781768d8cU, 0x8a9295878c738a8eU,
  0x84908a7a7b8a8a89U, 0x9285868a88938389U, 0x7c8c8a92887e8788U, 0x8b787e8580848b81U,
  0x7994948685a9748dU, 0x878c7d7f8a848478U, 0x8a908a8b8d938e88U, 0x8a848a9088908c83U,
  0x7b8b968a898e858eU, 0x928b8c7c93878988U, 0x888b8f777c788872U, 0x7b8783939d99746eU,
  0x787984a682af8c6bU, 0x848fa18b7e8b8d79U, 0x8d79928e74a28a87U, 0x808c696791868189U,
  0x8d918aa4957a7f9aU, 0x85948e8d88828b7cU, 0x8d8185958e7c99a1U, 0x929783888393978eU,
  0xa37d94827e7c9a8aU, 0x787d77777f9e7c72U, 0x82968c7c817d899cU, 0x8a87738f927f9686U,
  0x93a1898e92878883U, 0x908385809f8d8981U, 0x83927aa0987874a0U, 0x838b888d78847e9dU,
  0x888a8d8672a89495U, 0x91827a8873858e92U, 0x7698908886828786U, 0x4b76808a88858fa2U,
  0x817a969c99808563U, 0x8c9b8d9086918d7fU, 0x8f9a8a8ea38f9faaU, 0x838c888180796f7aU,
  0x868188928c8f8591U, 0x828e848b74928287U, 0x85968386a1898fa0U, 0x8f8088838e818680U,
  0x7c87a08b9292888dU, 0x81808c868f787456U, 0x92858d858990878bU, 0x8e8b858286898884U,
  0x8a8080877f918778U, 0x7e7e7d938a8d859aU, 0x8d8a82858fa68388U, 0x868384838c88888bU,
  0x828b898989988586U, 0x7f868f8183898488U, 0x7d8b878b878e8391U, 0x85777c897b938586U,
  0x998f928586897d82U, 0x908b8b888b858888U, 0x8c898f8c8c7b8382U, 0x9b7e7e819685868dU,
  0x95847b8489848982U, 0x8383848797868c97U, 0x8e88878f909b7a8cU, 0x717396a2838a88abU,
  0x928c89809292867eU, 0x6c818b6e9487848cU, 0x7d8e7d8298837979U, 0x9c868d8780938d69U,
  0x7f7f8b8680908e95U, 0x85819475738d7b84U, 0x7a8283977c8e8382U, 0x968877758e869179U,
  0x8a86848b9d828d97U, 0xa592839d9e807f91U, 0x8c988b9a75907172U, 0x8a8e966e83879087U,
  0x8369979b8c648d87U, 0x887f888f93869494U, 0x768c7e6a6fb98c90U, 0x8a878a8b928d889dU,
  0x8d8e89908c628d89U, 0x788d908d7a89998cU, 0x8b80847c8c7c865aU, 0xb29685889787877eU,
  0x8b6c848e807d7e72U, 0x7f8b809599ab8c8aU, 0x8b988c5e8580a288U, 0x8f85888d8e847889U,
  0x90868d4a7992897cU, 0x878abc846585728fU, 0x8c8e98888b8d998bU, 0x887d908a8a887f80U,
  0x8984938d878f867cU, 0x838a868591837972U, 0x8784838585858286U, 0x897f99be888c7d6eU,
  0x7f88888e6e97879fU, 0x83938d8c878d889cU, 0x8e85887f849b8c89U, 0x8f8780778952878aU,
  0x9c8c8f8289888791U, 0x918a95868b867780U, 0x87918c8888928a8bU, 0x7982848c718a7f89U,
  0x89ff8f8c82a78783U, 0x8a83847d888c8c82U, 0x8e7096838d8d8888U, 0x8ea1888e84907e90U,
  0x86907e9294868495U, 0x8a83a64e83888b85U, 0x8872829084858a87U, 0x8f9d668584857c93U,
  0x8e8e888783788a87U, 0x8c838a80888b8b88U, 0x8685898a869d8b86U, 0x8aa874838e938784U,
  0x857f8a8a7d8d8c84U, 0x898a858c8786877fU, 0x8b8c8b898b8f8884U, 0x778f918b94849794U,
  0x6f86898897868a86U, 0x8777897c818d8885U, 0x829886898c8b89a3U, 0x8e92888b8a92888cU,
  0x8588968b7a898a81U, 0x908989967a87827dU, 0x9a86879b898b85a7U, 0x7386818586789397U,
  0x818a76887c968d88U, 0x85807e8f8f8b8782U, 0x8d8d888a888b8689U, 0x8485847d8e907b7fU,
  0x895f8d8c80848561U, 0x87938a818887879dU, 0x8a888785908b8d8bU, 0x7a977b78907a7582U,
  0x9e867e90837f8587U, 0x7984787e8987887aU, 0x8895878d86858b62U, 0x84838a798d88818bU,
  0x64837d847d8d7f8eU, 0x8689829078877d65U, 0x80977d98217d81a3U, 0x68878e8c7c92849aU,
  0x8283869390b08c83U, 0x888581937f7e7e8bU, 0x87888b848a899392U, 0xca837b8e838d867bU,
  0x8b8f8396aa7f828fU, 0x8b9f838192658590U, 0x897b8884978c8badU, 0x807b848a888e8e7cU,
  0x75818cb0907e88a0U, 0x858c8774be806b86U, 0x86859092908a858eU, 0x8988918987859288U,
  0x788e889b8b818887U, 0x9184858a817e846aU, 0x758d8c92827c9a96U, 0x8788868d8b828987U,
  0x90849689888e8986U, 0x888686888e778b8aU, 0x809f7a8b8a81947cU, 0x7f88858f7f848e95U,
  0x838c8e8f7d808b81U, 0x8dd2878b84808384U, 0x90888581ac899499U, 0x998b818683859289U,
  0x858a889789878d8bU, 0x7c806e8483868582U, 0x87868491a68b8d90U, 0x868c89928a8b8880U,
  0x847b8b9192837e94U, 0x8b7d8d8b827d955eU, 0x877e959588908086U, 0x81858279817f88a4U,
  0x8b8c8e7f8a986485U, 0x59757b898b948c79U, 0x857385698a8c9491U, 0x859d8e898a8e8279U,
  0x868495898886aa7cU, 0x948495747d4b7782U, 0x8a898c7b8c809b8aU, 0x8c8e868789818d92U,
  0x937e8c6f7a918c8cU, 0x889176868d6e8693U, 0x8d8f877c88827f7dU, 0x808385927f908f88U,
  0x7d7b898c8e8e757bU, 0x8e81858f8a80799fU, 0x8b8b918f8c89898fU, 0x878c84879494979bU,
  0x8c86868c838e8791U, 0x86828c8a8988898eU, 0x838c908b88828686U, 0x8b8075888b858e8eU,
  0x878c8786897e8a79U, 0x858b878c8789847bU, 0x8787868b8b838a88U, 0x878a8f8c8382a186U,
  0x85898b818d7c7f94U, 0x88858496908c7f8fU, 0x877b868386858696U, 0x84888d8a867b888bU,
  0x89888b8285898a86U, 0x888c8d848a8c918fU, 0x7c878f798a908489U, 0x8b8b918475918b86U,
  0x7d50938c8a8f888eU, 0x85828d827f868889U, 0x8889878790868782U, 0x8e8e8d888c868e84U,
  0x867288839884898fU, 0x8a89878b83908385U, 0x908b86b387898e87U, 0x928e877d8e80838bU,
  0x7e92898183878e84U, 0x8383938e927f9788U, 0x8797818486868c84U, 0x89828984868e8b8aU,
  0x908d88888b8a8b85U, 0x83868f8987898f8dU, 0xaa8b84a6d37865b1U, 0x937e868d7e5f9080U,
  0x7e988b888c948a81U, 0x8d8481836b8f907fU, 0x92918a8989a39091U, 0x746e8ab07a717c91U,
  0x8d8d8a8d96948595U, 0x96a86c8685908a99U, 0x76918092a19285b1U, 0x7c9c8881918f6e88U,
  0x8484889d937a88c7U, 0x9598a191888c7e81U, 0x8c7986849f8d8b5dU, 0x848a8f8781816c8fU,
  0x768e83877b8d8584U, 0x9b7680768582a85fU, 0x81818481848f8984U, 0x94868283fc7d8391U,
  0x8c87888385898781U, 0x788583897a8f8887U, 0x827f8379898f8291U, 0x8384827d85828883U,
  0x898f7c878a81897dU, 0x7c898c7c9d948288U, 0x8a9a86a8917f9288U, 0x81877f898c827d8dU,
  0x9584857585878c84U, 0x82879f859d798b8fU, 0x91888a7f828d8a8eU, 0x7d7f888c89838380U,
  0x8986818e8a7a8286U, 0x848386848b898f90U, 0x8a888a8a848b8786U, 0x898c807e8788858eU,
  0x8b878988878a8888U, 0x898d8b8788828a88U, 0x8589898b85868985U, 0x868685888a7a8a84U,
  0x7e88838988888a89U, 0x8887898b8d878c88U, 0x89897a898a868a85U, 0x91888d8b89898c90U,
  0x876b8b8385838c87U, 0x867f8785898f8687U, 0x8c8c848687878986U, 0x828588878e878576U,
  0x8e8a888588888883U, 0x8588818b8b89898dU, 0x84898c948881848eU, 0x85897d8f87928997U,
  0x918f8e8d848a8a85U, 0x808a86788b8e8c95U, 0x8486858d8fb87f84U, 0x8a9a80868d8a8688U,
  0x866e8589838c887aU, 0x89878c808a8c7c8cU, 0x758b878c8d868b88U, 0x877d707e8d869285U,
  0x7e7e91878a8aac87U, 0x898e898a8ba18485U, 0x85928e8c8b678091U, 0xa57c8b798b98899aU,
  0x8b87838c7d898986U, 0x7f89878883878892U, 0x6c7f847d7b7e879cU, 0x939173818f7e998eU,
  0x94858f868dc6838cU, 0x89659c7097888477U, 0x91927a8592a48885U, 0x918992a8857e7990U,
  0x84838c9188797b84U, 0x93857785789d848eU, 0x998787959171977cU, 0x8e97818c917a6291U,
  0x978a878a89918985U, 0x987b96938c7d8c99U, 0x80857ea47f7e839eU, 0x8f7991948880817fU,
  0x917c838c7c868774U, 0x6b8d78858b909790U, 0x87888a8b89858a86U, 0x8a8d92838c908a88U,
  0x85898882908b7f89U, 0x8786898d88828188U, 0x83888a82898f8785U, 0x8785888981888788U,
  0x8886868d89878687U, 0x888a88858c8b8b87U, 0x8c818388878a878aU, 0x8c868b888a838189U,
  0x858b81858786898dU, 0x8d8589898582888dU, 0x8486848281878989U, 0x878f848888828b86U,
  0x86868f8b86828b82U, 0x89858787898a888cU, 0x9382839a8bb68c88U, 0x8c86838884899282U,
  0x8b838c8a7c968e8cU, 0x837d827c8a8a8a97U, 0x89968c8d818f8b88U, 0x87949089918a9192U,
  0x8a8a87938b83858cU, 0x8b7f8c86897f848cU, 0x888f888386947e81U, 0x888282847d879085U,
  0x98858b957d8c8d7dU, 0x858983847c889390U, 0x8d8d888d888b8897U, 0x84889489848b9186U,
  0x89909188928b9089U, 0x8a888d8f79878794U, 0xa27781aa87828c7eU, 0x898b798f8c93a297U,
  0x9f8e798c834f88b8U, 0x81837a798482858eU, 0x858f847f8a708489U, 0x838c909a82908d7dU,
  0x8a7e8359888f878eU, 0x7f878c81818b73a1U, 0x8e848b8a80768779U, 0x8a888c86a082a78cU,
  0x99848595837b6b8bU, 0x80ab928f96898290U, 0x868792808c8c8a88U, 0x84968c9283947f92U,
  0x808782996b848684U, 0x8c868d8e777d619eU, 0x818276758c819896U, 0x8f7f547b7d7a7b71U,
  0x8c8b8a8479738c8aU, 0x968b9996948c8e92U, 0x84a59a9077339d89U, 0x92778aa08a9a9797U,
  0x87848d5a8083987fU, 0x9c8f9c9f8d998788U, 0x8493859692a5918fU, 0x7973957f8c908182U,
  0x9487a08a927f8484U, 0x9884777f8075898fU, 0xa17a7a729490a092U, 0x8a7c789a82719278U,
  0x778199858a938e8fU, 0x9199939a789a808eU, 0x8889878e898b8788U, 0x8a86818984868882U,
  0x6d838991897b8792U, 0x898a92908c878885U, 0x8e86888b747e8689U, 0x8e947f8b93848486U,
  0x8a8d899388868782U, 0x88878a8a8984828cU, 0x89898a8985b28789U, 0x8486848b798bb68aU,
  0x97888d8685918784U, 0x8778888387878884U, 0x85878a7988888989U, 0x8a89868987888188U,
  0x899687788a878886U, 0x858986848488828aU, 0x79998f958283858dU, 0x8b7098b48b86857eU,
  0x8d8c7e8c728e8b8fU, 0x868e8a8f846b8b7eU, 0x828b878c80648b83U, 0x84718e818c80698cU,
  0x9e879386818d8c87U, 0x8f837f8f8c847a7fU, 0x878f89858f8d8d8aU, 0x6894898d8f817d8fU,
  0x90d4948c7da07e88U, 0x8f998686898a8884U, 0x8885858580918f75U, 0x798b8f9288867f7eU,
  0x918b887b7d8f8899U, 0x9890a3617b91909dU, 0x999f88978f888996U, 0x929f8b8b818c929fU,
  0x8f8f8a8486959281U, 0x897f708e95858fa4U, 0x888382967e887d89U, 0x8c79848d9a8b8591U,
  0x8784808e817b757eU, 0x7f8388756a838b8fU, 0x8f968a8f889c7a8cU, 0x917692949f819295U,
  0x8c85928994778185U, 0x99859d9987a08e95U, 0x907a7f828967757fU, 0x8a79877c80877a95U,
  0x84818b8a9c928f86U, 0x6d907b8b8890789bU, 0x8d949d9093897c90U, 0x808185938791808eU,
  0x9d898788898a8883U, 0x7c737f6684858489U, 0x8a847f8299837c86U, 0x8a938b8c82908888U,
  0x80827f8189887e84U, 0x7e808c77878c8085U, 0x8788898f808b888cU, 0x927f7f7689828682U,
  0x8a848688a2848c8cU, 0x908b85918f8d7d91U, 0x948e889d87867f8bU, 0x8c8d867b848d968bU,
  0x807c89918186838fU, 0x8b8b878e8a879189U, 0x87877e8487688c8fU, 0x98858a88959c9386U,
  0x8983838983938589U, 0x968689868e86828bU, 0x8a8d85878191968eU, 0x81868b879390868dU,
  0x89847e928a8b8490U, 0x8697848b98958598U, 0x7d7d8c86898f8480U, 0x898182798b7d8686U,
  0x7f8f8b9b86808982U, 0x8f91a89584828e96U, 0x827b8b8d7e828a77U, 0x868d89798c907c8cU,
  0x92898a81938b9888U, 0x9092878a838f737cU, 0x8b8a8b8a806e8385U, 0xb2828484948f8897U,
  0x93808b8f8c928c89U, 0x59817b897183978bU, 0x89888d9e90947d81U, 0x79808789848b86a2U,
  0x8a8d8e9083919c88U, 0x8c80858c7fbb8788U, 0x8c7f87798b788e8bU, 0x7f8b908f8882848bU,
  0x888a9569858a8b86U, 0x857f84899a82a188U, 0x83878a8d7e837986U, 0x90848f87888f8b92U,
  0x858a8a7988809186U, 0x84878e858a838495U, 0x8d8b808d8a8e888aU, 0x858e9092897f8b90U,
  0x84867d508d8b5085U, 0x868a8d888395648bU, 0x8a8a874885988c89U, 0x898a838a3e8a8385U,
  0x858f878b88888b8dU, 0x87888c89888a808bU, 0x895a72845e828886U, 0x9d8d888b8976908dU,
  0x818b2c84898e868eU, 0x89898b83908c848bU, 0x89877e82808b8b8bU, 0x80888a8a5584868cU,
  0x878d89938a48868aU, 0x8b50838c82527d8dU, 0x8f898791848d8c87U, 0x8d99887d8b8e708eU,
  0x8c8186758470857cU, 0x8ca8567f8497859eU, 0x8290817f8c7c8a8aU, 0x8e8d8680888d9582U,
  0x908a8e8292858799U, 0x8587947f84989382U, 0x93868f87876b888eU, 0x9a8380929f948585U,
  0x7e9c808589848b80U, 0x8190878489808d8fU, 0x82838b8a8e908384U, 0x8a887a809882898aU,
  0x8190879f86898590U, 0x8f84918a857d9d85U, 0x8a918a6e91888694U, 0x8d8eba7e88a56f73U,
  0x8c7f8793868e7f7bU, 0x88878c928c8e83d6U, 0x86918b86958e888aU, 0x93826b938e8fba8cU,
  0x85838c996c8a8698U, 0x89868c848a927e8cU, 0x86848c8988838591U, 0x5e918891968c7887U,
  0x868a8f7f897a8c8cU, 0x8e92819287888895U, 0x94888493848e8672U, 0x858299888d6f8a80U,
  0x8e8f929573878d91U, 0x8a81b68f9a876983U, 0x918c98898a86887bU, 0x8980848585868088U,
  0x7e8187858884847eU, 0x878c87858589857fU, 0x898c8d867b798988U, 0x917c858e88857d7aU,
  0x887a85ba7f8b8b97U, 0x7f89898782868787U, 0x83888a888c8e8b92U, 0x907d878676898487U,
  0x978d86819082818eU, 0x8a82866d85848d70U, 0x8e95867e89878990U, 0x817b869685877c84U,
  0x798997967e887b85U, 0x85837f867c858c85U, 0x8384908b868a8a82U, 0x8a8e7b8e87938591U,
  0x8b8c88877b8f8988U, 0x85858e8b8b8b8972U, 0x8f82858686778a89U, 0x847a8a7d867f808cU,
  0x918e8989807f8793U, 0x84858b87898c8c82U, 0x8e878d888a8a858bU, 0x88b1958b818c83a1U,
  0x8384888a85988485U, 0x80868a7a817a8584U, 0x868989868a8b8885U, 0x8c9092898486868eU,
  0x8a897f7d808c8885U, 0x8785837f7a888e93U, 0x89808688898a8686U, 0x838b92888c828883U,
  0x88828a8c86828a8bU, 0x5c707e897f8d8b85U, 0x8d87508b888a5888U, 0x8683888f88878d84U,
  0x8898838a89875992U, 0x547f8c408a877a84U, 0x838c88808f84888eU, 0x8d8f8d7789888b8eU,
  0x88898e83898b828bU, 0x8d8782888a8b878dU, 0x86868a878a854686U, 0x888c866d87828e87U,
  0x8a8b83888a8a8782U, 0x838a8e87888b8e89U, 0x7e7a72898b908092U, 0x91a08370878e928aU,
  0x74897c7c81aa957eU, 0x5a9fa5a18f937b87U, 0x8d7e70917c926fa6U, 0x8c8b93758386878eU,
  0x8d8e73848899a887U, 0x91b593817a83999eU, 0x8a818a7692966185U, 0x807f7ca68f86968eU,
  0x7d9a7d7c87828d91U, 0x84948c7a6d719882U, 0x8a7a708393987a82U, 0x8990947f937c7a84U,
  0x8d6d69968e95829cU, 0x868d868875868294U, 0x8489898d87868589U, 0x8c8d85748a878590U,
  0x898a8b89868b8786U, 0x888c88898792878dU, 0x88868685878a8488U, 0x857d898585628d88U,
  0x83888985888a858aU, 0x8788848488868784U, 0x89868c87878b8986U, 0x88838c868d898b7eU,
  0x8b61858789969286U, 0x8b8b898787878887U, 0x88898b858885847aU, 0x878f8885878a8590U,
  0x8789858888858688U, 0x898680ac89888892U, 0x6983876c8a8a8081U, 0x8d876d7d8c8d9a80U,
  0x8e8b888d86848a88U, 0x8889868b8585887eU, 0x8a8c848988928584U, 0x829277878c84848dU,
  0x8a808b828e938798U, 0x847f8986918f7e81U, 0x9c878b8b81838a86U, 0x9786888c84876e93U,
  0x948b8f847a817f80U, 0x868a767991858783U, 0x8c8a8a89808b838aU, 0x877f8a8587887f92U,
  0x8592968a568d878eU, 0x9187868083899190U, 0x7988a0ac815e8888U, 0x877e7a775194857cU,
  0x796e848983a88e82U, 0x707a6e8290958e88U, 0x8c7a847d7f699069U, 0x7fad7e7e96838373U,
  0x856ad77a65968784U, 0x828760658d6c837fU, 0x8fb28f6e8b7d6b7dU, 0x859586958d879c80U,
  0x928f8d8f737b8364U, 0x828d2a777470da7dU, 0x84a67c788d7cb174U, 0x83838d8b8c88c689U,
  0x90948597808d847dU, 0x8d8582858f9380a5U, 0x878882ac8a8f8b87U, 0x8f918792848f7683U,
  0x888584827680919bU, 0x8c82788e8d978795U, 0x818e8e8a67768b89U, 0x8d866a9487928b8cU,
  0x8f967c818a8e896dU, 0x9691998795928f5bU, 0x858687868898887eU, 0x9b8c918563899987U,
  0x8c87898f737a897cU, 0x7a8b78778f918a73U, 0x947b83848d928490U, 0x8d8f767b847b7b92U,
  0x867f91817e8e9184U, 0x8a8d868f7d8d8993U, 0x92a78fa998657c73U, 0x2099858b63738970U,
  0x828a8e8f8bc9807fU, 0xb9816c6d70927c8fU, 0x799172a784849cb4U, 0x2b8b819a788b8884U,
  0x8e837b906a839b85U, 0x8489a56e794b837aU, 0x7c8489948a858b7fU, 0x8997887e889aada5U,
  0x8a8e8668808f8593U, 0xa6704b86c18d9781U, 0x6e9d8d9786846b77U, 0x818994838783738eU,
  0x7776829282785a87U, 0x9c7d87909085a1a2U, 0x8e8d8a8d6a669084U, 0x86918e7a7d679489U,
  0x8583848b7d978580U, 0x827c819785918d8aU, 0x8c9789818c968a87U, 0x909f80908c94887aU,
  0x88a28c7d818a868cU, 0x8b838b839295857bU, 0x9189868c8485958fU, 0x9090878a8c8b8d8dU,
  0x8f8d867f7c7e9278U, 0x7f888b868b7f7e87U, 0x8d9b888087878682U, 0x8986867b8584808cU,
  0x9582878f77868e8aU, 0x918b898e83888c93U, 0x8f8b8d71918b8f95U, 0x809083817e7d8088U,
  0x89818c84936b7d7eU, 0x94847f8692928187U, 0x8e937b7f8d7c878cU, 0x819b8b8076908691U,
  0x8d88859282799186U, 0x91738a8d82899292U, 0x90848787d0828e81U, 0x8a9c8182948b7b7cU,
  0x838e75928d7e8c72U, 0x80818a8a777e8385U, 0x958f849551868b84U, 0x828f818c8e878b84U,
  0x937c8487858d8382U, 0x7f9285878c4f8dcfU, 0x7e70a6a0948d7c99U, 0x7a75917c928069b6U,
  0x9d898e5aa375817bU, 0x7b79706c87928473U, 0x905f8e839798858eU, 0x9e7f819c59a0837aU,
  0x807b89925ce7796fU, 0x9396688979876786U, 0x9c807585879b887bU, 0x999e6c6a6d90a54fU,
  0x8a897f97906decadU, 0x908a64598375747fU, 0x97897f90887c767dU, 0x967a9e6c605c9c8eU,
  0x807d89988d7d6e8bU, 0x8282819e8b89829aU, 0x82938d8c89888688U, 0x8585a38f8b8c8586U,
  0x8b858688848a898aU, 0x8c8e8c88877a8686U, 0x8285898a86658d86U, 0x86908f8689778c85U,
  0x908b8a908b868e87U, 0x8b8c84908d88828aU, 0x8e878e898a888b88U, 0x9b948f889082908aU,
  0x8e8b8b8b82947a8aU, 0x8b8986858d8c8889U, 0x8e7b8284868d8c79U, 0x6b8c85907c81837bU,
  0x878a8e8c9688888bU, 0x8e8c8f8f888d888dU, 0x84788d87899891a1U, 0x8a9a89637079966fU,
  0x6d87858dbb807ea7U, 0x8e897ca6858d8581U, 0x7d747e8584c48992U, 0x98a491ae8d6f927bU,
  0x8b768084789c7aacU, 0x8788968395728c59U, 0x908d917f79a3836fU, 0xa5a08c95768e6384U,
  0x979d8579bc917e9cU, 0x8e8a8a9c74638599U, 0xa73f89827d898e9eU, 0x8c6c8f8b8f858684U,
  0x837890709b7a7879U, 0x8b7f9669a07d9785U, 0xb0849e84869b8d72U, 0x9484a17489897b89U,
  0x8a878d8f987a8d89U, 0x87878a9a868b8f83U, 0x83907b848e6f9b86U, 0x809e7c838b8b8190U,
  0x8375887693928c9cU, 0x8f9a818698938a7bU, 0x9b8c8585888c9769U, 0x9f8e899286848684U,
  0x7e918786868d8a7aU, 0x8c858475886e896cU, 0x87888f878a8e8bb5U, 0x8c777d927f768091U,
  0x837d788e718d7c93U, 0x878d7c8190889971U, 0x9083868885898984U, 0x848c938f8c7e8889U,
  0x8d83856880825e86U, 0x8e8b8e828495638bU, 0x928c8d588b928f88U, 0x8687888863888885U,
  0x8a92868085888f8eU, 0x8c888595868c8b8aU, 0x895e7d836b83898bU, 0x94888a8d8485958aU,
  0x8a86588488868b8fU, 0x838c8b8490928685U, 0x8788858d848b8f95U, 0x8e7b8b8f72888c8aU,
  0x8a8f8d8c8a588488U, 0x865a86888f588586U, 0x9d9784708789878fU, 0x877570978c8f8578U,
  0x8491878d90b0888bU, 0x87918c8a8b8d838aU, 0x867e8b87876c868eU, 0x895f918887688f87U,
  0x837f848a7b958d95U, 0x8f85868d8a878484U, 0x8986918987878d8eU, 0x8f4f77918e899b66U,
  0x9b7d848a849b7f86U, 0x89b0818283907a88U, 0x8496908089878f37U, 0x796a72818d988486U,
  0x8e8382809c868683U, 0x87888c5a77868aa9U, 0x83908aad7d909284U, 0x9284a3728b895a96U,
  0x9c7584759d968174U, 0x777d959e997f8d71U, 0x7f7d94799a7c8488U, 0x7e887f686f8f7896U,
  0x7596837a8e5b746bU, 0x7d83768c6d877a82U, 0x80817c9486919782U, 0x8e8c867371808a7bU,
  0x9396868389605a7cU, 0x888d89907b66808fU, 0x7597768c80808269U, 0x7f8f67826c88727dU,
  0x94758eb87e749685U, 0x708c76907c8d61a5U, 0xa97e77a18a778c8fU, 0x8a865b8c7fa4a58aU,
  0x7c9086857e6f8695U, 0x888b8b9288918984U, 0x8c8a87857b898e8aU, 0x877c848e84868188U,
  0x8b7985857a708a7aU, 0x8d83878a868d8571U, 0x898788878596838fU, 0x85797f89b78ea78aU,
  0x99848a8875818d81U, 0x8d7b8f8d8b839088U, 0x866b89648a818ba6U, 0x879e788d818e8f89U,
  0x81898e7e9584898eU, 0x908d8387768e8788U, 0x5d848592827b937aU, 0x918b898486908b9dU,
  0x8390897f8f988293U, 0x808383689e8b8288U, 0x89947e80797f7c86U, 0x92a38b8e818a8787U,
  0x8b7a8b9d66a47a7bU, 0x798c90757f7a859eU, 0x8e80828888898d8aU, 0x868185798f7eaa82U,
  0x7b857c93829fb781U, 0x868d827a7285928dU, 0x8fa4857e898b73a1U, 0x8b96907b8386728fU,
  0x7681727c9f7f8b8dU, 0x83858b8681877c87U, 0x7b5d77997f70807bU, 0x8286847e898fa1a7U,
  0x8b817d8c927f8a80U, 0x9178947e93728783U, 0x8a84908f7e8f9290U, 0x8a8c886f8d9c9480U,
  0x787e8d9978a7887aU, 0x8e7e7c9b7785858fU, 0x838c8c93917c89a1U, 0x786e7a77967d8d9bU,
  0x9b8c89897f7b7b9bU, 0x7d888c8d81618e9aU, 0x84a08080957790a1U, 0x94a29f8b84819a7bU,
  0x8f85899487888d97U, 0x83848fa1c7826b8bU, 0x828b887d858a8788U, 0x8a8c8c8d87878f84U,
  0x828f898988ac8a89U, 0x8989858a8889898bU, 0x838b878998908b88U, 0x86908a7f8b8b8989U,
  0x8889868383848b81U, 0x868a8889838c8b89U, 0x8989898a887d8785U, 0x8c8e8b858f866b91U,
  0x7b858a878f848384U, 0x848c8d928589888cU, 0x8587879d8688898dU, 0x8880898b89848585U,
  0x858487a08c8a8789U, 0x8788898c8b868a89U, 0x8b8b88838b84908aU, 0x86848c7b84968376U,
  0x878e898586818c87U, 0xb9a4ad87878c898bU, 0x859dc58d867cac82U, 0x89788a8c898e8c86U,
  0x8b818d858787a689U, 0xb19792a49c819587U, 0x878a87898b7f828fU, 0x7a8088c185868e81U,
  0x8b8b8a91867e8385U, 0x838a868f83848a8cU, 0x8789818a89a49a83U, 0x868a89b6888c8583U,
  0x89ad817b958c8c8cU, 0xa78c8d8c878d917dU, 0x7e7e857e83858786U, 0x7c8a7b6687897d7fU,
  0x7f8a878e79848b87U, 0x928b8988808e9889U, 0x7e858e908672937bU, 0x86858c7b9a5b9789U,
  0x6d83837f858a8c8dU, 0x93887e9689899a84U, 0x809a7f889375847fU, 0x9b85848b8e858a88U,
  0x8759a08588887887U, 0x8087857e849e7f7cU, 0x6385848d8c98978cU, 0x9985839486958e82U,
  0x8f8c89818e94857bU, 0x90906c928a909487U, 0x8e898d6d9185ca6dU, 0x849080938c928390U,
  0x878c8686878c8973U, 0x89878682868b8684U, 0x8eb4808e836e9486U, 0x8b768d8d8a847e88U,
  0x94898f8a868b9082U, 0x958d7f918f8a7f86U, 0x898788847f898978U, 0x7f848d8191819087U,
  0x868284878d838b84U, 0x917f869290988b85U, 0x917e81917c8b8684U, 0x888c7e7b878f908fU,
  0x869a82847c8b858dU, 0x908a818485959594U, 0x7c898b8a888a848bU, 0x85869d898d858179U,
  0x8688898988888893U, 0x85837f8080878882U, 0x828b85888b728588U, 0x887d8287887f8589U,
  0x898f8680869f8983U, 0x8a8a8b8a8b888b8bU, 0x8b868d888a908c84U, 0x9c9e9b8786887a7cU,
  0x8e8a8b8a8b968c88U, 0x8a81878a8a8b828cU, 0x898a8a8085948b82U, 0x8a8992878c778884U,
  0x89818489a4878887U, 0x90878781828a8c95U, 0x899d93908d848c91U, 0x8889699a848d8b8eU,
  0x7a8d8b8c7e968785U, 0x928b878e81788697U, 0x7f8d9486828b8e8aU, 0x938485898c948992U,
  0x83818485867c9172U, 0x9282818e81868f8aU, 0x87848a8a8b9c8582U, 0x89767f7c9682a190U,
  0x867f8a7f888d8286U, 0x8d96819a8481839dU, 0x85768c8282898d90U, 0x8281838288897b89U,
  0x887f837387868a8bU, 0x878a8892808e848dU, 0x878697b487968695U, 0x8b838588858c936dU,
  0x92868b859ab17c87U, 0x8e8c8a91877f7d82U, 0x81907c80869d8d8fU, 0x8c93869f7f84908aU,
  0x8d85889c9c869194U, 0x8c79909393838490U, 0x857e7e8d96958aa8U, 0x7fa78d937e87837eU,
  0x958377a0988e8498U, 0x8b847d9893939382U, 0x72798f9193928773U, 0x887e858b8b888989U,
  0x8f938b6777819b86U, 0x92639681828b9045U, 0x7e7d8a8b8d898887U, 0x85858f858789838cU,
  0x8e8c839094878c8cU, 0x898388738572897fU, 0x7a90938e8d71897fU, 0x8e95907f908d8b7eU,
  0x8893857f85948686U, 0x89878a8a88858789U, 0x88878083908e8886U, 0x8e83877e84837c7fU,
  0x948d90898e877e8aU, 0x8e8383818b8b828bU, 0x85868594808b9189U, 0x749c7f87877e9a6bU,
  0x798489858e8a7c89U, 0x858b90889d928782U, 0x8084b8908b948580U, 0x9e849e937b898563U,
  0x96be7e959a819a7cU, 0x9a929389929e9283U, 0x8a7d7f9a9478988bU, 0x87a599888e95847fU,
  0x8e7b8f9a9d81889fU, 0x868b8a8c757b9587U, 0x8b9d887a91829e7eU, 0x886090898b907ba1U,
  0x8182929678819084U, 0x829d628e89b08a82U, 0x867b88bc8f86908eU, 0x8ba5889a8c91789aU,
  0x668d818d6f998098U, 0x948780897685817bU, 0x749096727d89897eU, 0x8f8c877c88a18e78U,
  0x9688818191847f8bU, 0x828291828e8a7d8dU, 0x868c80848c798986U, 0x8da48487838c899eU,
  0x81838096907f8596U, 0x7c758f828b86838bU, 0x8f7a8882548b8f72U, 0x8e9189988d8b8c81U,
  0x7a8c7a8d87878660U, 0x858f8b967e7c8696U, 0xa38f8382668d8e9cU, 0x7f8a8d8a847f7885U,
  0xab8b947088859489U, 0x8f93908a8b828ac2U, 0x8f77958388818a8dU, 0x89906e8789908583U,
  0x89868d88938a8682U, 0x8b8f8689878b8a90U, 0x828989888b9f8788U, 0x868e808f88858489U,
  0x897a888a8591877dU, 0x8d8b89878a87898aU, 0x8688878a87818888U, 0x808589898d829382U,
  0x74838a888a8f998bU, 0x8b7f888584898688U, 0x8c968a86828c8992U, 0x978f8f89878d8893U,
  0x86868f8984888587U, 0x878b8483908c8b80U, 0x83878e8a7f7c8985U, 0x899490b98e8a7a79U,
  0x8985849a8b889484U, 0x8c94937a7ca59592U, 0x848d96908952917fU, 0x8370828295895185U,
  0xa28a8f737e90878bU, 0x91827d9a817b6779U, 0x9b96858d99779289U, 0x727e908f8c85959aU,
  0x98c5ac95857d8a8dU, 0x8b867f8184a47f7aU, 0x86999d9282989580U, 0x7d7e8a9b8c927387U,
  0x908c9a81868d868fU, 0x8a91926495949c83U, 0x937f789984929186U, 0x868e8f8368958baeU,
  0x7c908f85858a997aU, 0x968a818491958b8eU, 0x8c717779868f2c87U, 0x92938f5f7f918979U,
  0x827b7985798b017bU, 0x7b849b7d8ee98295U, 0x848e83717c7f8581U, 0x8787838a9280918eU,
  0x8884826b898c937aU, 0x8a8b5b85818a9f9aU, 0x9aa38984808c7874U, 0x8d898b7d888aab8cU,
  0x8777839a80668f7aU, 0x728a8088938d7d92U, 0x808c92b684917b83U, 0x95909388848b7a7dU,
  0x908e827d9da18488U, 0x9d87877a8b93828aU, 0x6691848f898b8990U, 0x86948b8b848a8b96U,
  0x7d888f8c8982898eU, 0x8b838a8e84857d90U, 0x8b80928d857e8780U, 0x8998857d8f96a47eU,
  0x9796768f8f888f87U, 0x8c818196868d9380U, 0x7e8d738a84877e6fU, 0x8a918b877b89878bU,
  0x8b7f7f8a8988908eU, 0x82588a8988948f6fU, 0x827f938a94899893U, 0x9094837d8e7d8294U,
  0x81879184949c7e80U, 0xa3867b81889e7c80U, 0x94947f769265928bU, 0x9287918452837d85U,
  0x898b848f8484958aU, 0x8e72839181769b89U, 0x9375928759858274U, 0x81948a8887397a8bU,
  0x8e8d888e8f8a8a87U, 0x8c838986787f818bU, 0x8a8a8694b08e9282U, 0x678b7d948c86866aU,
  0x7f738a91887d828dU, 0x7c798a8c87808759U, 0x6e9c8e6d8289816eU, 0x86a6a4737673a97cU,
  0x8f87958d76c98991U, 0x88817ba79385897cU, 0x839e9485765f828eU, 0x768b848b84927e9aU,
  0x92838e907c8390a4U, 0x788f9a788e9a918dU, 0x6a978082928d838aU, 0x6c638c8b78879c66U,
  0x6991878074978eafU, 0x987bac789882a4a5U, 0x839d8f818e8f8cb3U, 0x9178898386937c92U,
  0x868568a68b8d9097U, 0x8e837c94927f8e9bU, 0x8d8b888e85858685U, 0x8c89827a8990828bU,
  0x8e89898c828c8d84U, 0x8d8f8f8a88888d91U, 0x878a888e887e8889U, 0x858689858b689b8aU,
  0x8f878483828f8984U, 0x8d86838a8d878c80U, 0x898a948e8d7f8b84U, 0x967d8c8d91898d8dU,
  0x85668a87888b8e88U, 0x8682878289908781U, 0x8a8d828c8b848885U, 0x90888a8a948d7f8bU,
  0x87858e8989908583U, 0x848e7d9f878a8c8eU, 0x91729f6297b4927cU, 0x937d827170858f77U,
  0x7d6c7275779f9684U, 0x98a178b182a2957dU, 0x89918091517faf72U, 0x878f89738a598b97U,
  0x9a809aa89e57975dU, 0x9d7b68a391878a88U, 0x93928e807a61858dU, 0x6ca77d986e78778fU,
  0x74887c967b5a645bU, 0x725e707d8182a074U, 0xa4866c567f8ca76fU, 0x8676957e7f947a8fU,
  0x918695a797a490b5U, 0x8c9e935490a27982U, 0x908685859699857eU, 0x8880878a69897d8dU,
  0x85738a89918e8a88U, 0x8e8d918281818a88U, 0x8783818c8b8d8881U, 0x958f8c7989848586U,
  0x87ad8394928d8b82U, 0x868980948a728491U, 0x899782918a8cb98dU, 0x907a838785848583U,
  0x898d86788f8c8292U, 0x95829b86878b5e87U, 0x7e81858e86867a8eU, 0x89898a7d8589a684U,
  0x7e8485847d89738dU, 0x828784857b8b7e7cU, 0x8e938c78828f6a95U, 0x9a938d7e7b828d9fU,
  0x9682918a8c81878aU, 0x9188758992918584U, 0x8994a27d84938a92U, 0x888e818e83878287U,
  0x8983878d8b76858cU, 0x87179e867f947b9dU, 0x808b8a88ac8d8e7cU, 0x8f9585718e877f7fU,
  0x888c838a7e868e88U, 0x7883918e8c858f85U, 0x92888f83c1878789U, 0x89848f7e8a887990U,
  0x8db490928e837e86U, 0x897c848a8c8b89b0U, 0x8a838e8589848685U, 0x84869c808b758479U,
  0x90888883838a8983U, 0x868e878b877f8b83U, 0x808f81887a97897fU, 0x8b77868c8472878aU,
  0x898487868b8c8d87U, 0x88838287868d81a3U, 0x8d87849185868e87U, 0x769388869492a590U,
  0x888b908c8a94808dU, 0x877d828389817c8aU, 0x858f7e88828f8a88U, 0x898a8b868b787e7fU,
  0x8d8b7f98a68d878aU, 0x8d89897c82888796U, 0x8282898182838b83U, 0x827e88938c8b8781U,
  0x8b86888e82808b87U, 0x87878985828a8f8bU, 0x85878d8887839086U, 0x7f8a87879386758bU,
  0x90888b868f8b8c85U, 0x8a87878d88897883U, 0x828e818a88898d85U, 0x8085818e888a8c88U,
  0x8bb5928781818885U, 0x848c867d85948881U, 0x8b9493848b959086U, 0x858c83929186897fU,
  0x8e8988808b8b888bU, 0x8e8893808d878d83U, 0x7f9c85a98f9c8287U, 0x8189807884898c59U,
  0x898a84837a798e85U, 0x92898d897f85888bU, 0x8789888f7caa8d8aU, 0x94736e7d7e8d888bU,
  0x878e8282827c907dU, 0x8e8c7f907c80827aU, 0x8d87888c898a8185U, 0x7f8e8982889ab08bU,
  0x88899d9080758596U, 0xa0958898917f838cU, 0x89667d7f897a8c7eU, 0x867a8e7d808d808aU,
  0x938d7ea08b8a8f8bU, 0x9c8c868e8f90aba1U, 0x6c75713f7e7b8592U, 0x8eb65a82876e8387U,
  0x8489918980858696U, 0x8c796b808685787bU, 0x888e85879699878bU, 0x81d167649d898a89U,
  0x97868d7e729d8d94U, 0x96857b95878a7f8eU, 0x9d799c94867a8a74U, 0x7c5ca48cc17ca18dU,
  0x388b888d77978e7dU, 0x7866817e8c988c95U, 0x85a188728388856fU, 0x94919072d4958e8dU,
  0x8071a1ad6e778987U, 0x9a808b888c768e54U, 0x9389878c8582888aU, 0x8287778e86888e87U,
  0x898489838a848594U, 0x858a858a8386878eU, 0x838a858485888187U, 0x87818c8684869383U,
  0x8a8989898a88878bU, 0x85858284878b898aU, 0x82858a8a878b8b89U, 0x9591868084828586U,
  0x8b8c81848b858c85U, 0x888b8f8690908483U, 0x878786858489848dU, 0x84899087868b8488U,
  0x89868d7e94868584U, 0x8386938b91878d8aU, 0x7485827f89978885U, 0x81859384847a8b8bU,
  0x9b7e88997fb78485U, 0x8c88819187898b87U, 0x887a878a979f9087U, 0x848d82778784938aU,
  0x837e8c826f8c8676U, 0x828c898c867b8381U, 0x8b86867e8f53858bU, 0x8896898999858b8eU,
  0x868b8f977d7c7e81U, 0x868b7085737f898dU, 0x8a86728c85878e79U, 0x8877896d88838985U,
  0x85847e959d869192U, 0x8a839085948e8c89U, 0x9c7685808f87808aU, 0x8b92858890927785U,
  0x8e89868f8481837fU, 0x848e8c758a8a8781U, 0x8c878a8877a1808aU, 0x8f82807784807e89U,
  0x8a78899b91807b88U, 0x90868e878a87898eU, 0x8d848f89838e888cU, 0x8381858f7b928c92U,
  0x848a868982857c87U, 0x8d858a7e83918788U, 0x857a8e7a8a86828dU, 0x967e7e898b848a9dU,
