
/**
  ******************************************************************************
  * @file    cnn_data.c
  * @author  AST Embedded Analytics Research Platform
  * @date    Wed Jun 22 16:05:42 2022
  * @brief   AI Tool Automatic Code Generator for Embedded NN computing
  ******************************************************************************
  * @attention
  *
  * Copyright (c) 2021 STMicroelectronics.
  * All rights reserved.
  *
  * This software is licensed under terms that can be found in the LICENSE file
  * in the root directory of this software component.
  * If no LICENSE file comes with this software, it is provided AS-IS.
  ******************************************************************************
  */
#include "cnn_data.h"
#include "ai_platform_interface.h"

AI_API_DECLARE_BEGIN

AI_ALIGNED(32)
const ai_u64 s_cnn_cnn_weights_array_u64[ 168257 ] = {
  0xa69886bda17b8c85U, 0x485c113971596883U, 0x819a897877756127U, 0x5c657474757f8a82U,
  0x6a7473736e636a6eU, 0x76757574696c7266U, 0x7f64767676777977U, 0x5b737b768a805b82U,
  0x7b7a708e80588b80U, 0x7873847e65897d60U, 0x787676767676767aU, 0x7575757272727778U,
  0x7575737474767676U, 0x782d261b75757674U, 0x6b4c76add9dc7684U, 0x9ba1977591340027U,
  0x7b90906b9aa19986U, 0x7b857f755e6b7c81U, 0x305196ebb86a485cU, 0x469dffcf68365064U,
  0x7777777777776827U, 0x7777777777777677U, 0x7876777777777777U, 0x8091867878777777U,
  0x8e86787a787f9385U, 0x807879777e908680U, 0x7776777774767b7dU, 0x7f847e7d817a7b7eU,
  0x827a7b7d76797983U, 0x747576737575807fU, 0x656c6d686d7b7a7dU, 0x676e66697373786cU,
  0x7474767575786e61U, 0x7675727478757679U, 0x7677767577767577U, 0x7776767776767776U,
  0x7675777676777676U, 0x7776777677777777U, 0x7777777777777677U, 0x7777777777777777U,
  0x8b79646a77777777U, 0x75696f82ab917da2U, 0x6b727c9e907a9889U, 0x877a5c6a756f7679U,
  0x7a6f7c8e4f878d51U, 0x677d934989924c88U, 0x7c904f878f518581U, 0x777777777777806aU,
  0x7777777777777777U, 0x7777777777777777U, 0x7575757777777777U, 0x7676757575767675U,
  0x7576767676767676U, 0x7575757676767575U, 0x841100006197U, 0xfffff83500006dfdU,
  0x345200000bd1U, 0x77eeffffe7a9U, 0xffff30b700001502U, 0xffffbc5efffff4e4U,
  0x659d000058c2U, 0xffffe9f600004a32U, 0x3a283b392f3b3a3aU, 0x2639393a831d4c3aU,
  0x3a0b36393739393dU, 0x35383b3be5223f3aU, 0x3a3a39392b393a3aU, 0x37363b3aa23d353aU,
  0x382c3b39353a393aU, 0x2a3a3a3ac8225c3aU, 0x3a0d3b3b373a3838U, 0x37373a37f01a183aU,
  0x3c2f3b3a39393a3aU, 0x2d373b3b4d34003aU, 0x3a093a3b353a3b3aU, 0x363b3a3aa617463aU,
  0x3a0f3a3b323a3d39U, 0x403c3a3aff23433aU, 0x3a0e3a3a323a3a3aU, 0x37393a3a851e473aU,
  0x7e00000068U, 0xffffffd60000015bU, 0xb8fffffffcU, 0x117ffffffebU,
  0xf2fffffffbU, 0xffffffe7ffffffe3U, 0xffffffce00000121U, 0xffffffe80000033aU,
  0x7375767475757283U, 0x7573766a75757675U, 0x7875767475747a72U, 0x7574757075757575U,
  0x7675767575757573U, 0x7577756f75757475U, 0x7975727675757a73U, 0x7571756775757575U,
  0x7575757375757983U, 0x7577757475757475U, 0x7675767575727576U, 0x75748c7675757675U,
  0x7575747575877674U, 0x756f7a7475757475U, 0x7775787775747277U, 0x7578748075757475U,
  0x78758f7475757573U, 0x756c767575757875U, 0x6f75737575757276U, 0x757d747f75757475U,
  0xae757a7675747574U, 0x7571757375757874U, 0x7575757475827475U, 0x7570787575757475U,
  0x7175767575756f76U, 0x7578747b75757475U, 0x7475776a7576ff84U, 0x757a767675757475U,
  0x7075737475757774U, 0x7576747b75757475U, 0x6d75777775747078U, 0x7578757b75757675U,
  0x6f75727775747377U, 0x7578758675757375U, 0x75747575757575U, 0x7549747275756b76U,
  0x75757575756c7576U, 0x7573777575757575U, 0x757574707574640cU, 0x755b767575757075U,
  0x777573727575776cU, 0x7577756a75757675U, 0xa675747675757574U, 0x7576757475757575U,
  0x7575757475727576U, 0x756c5b7575757675U, 0x7375797575747377U, 0x7578748275757375U,
  0x7575747675750581U, 0x7576767475757676U, 0x7575757575767475U, 0x7574817675757575U,
  0x77757476757483d7U, 0x7577767375757376U, 0x7575757575757575U, 0x7575757575757575U,
  0x7575757575877575U, 0x7571537075757474U, 0x7775b07675747771U, 0x755c797675758075U,
  0x7575737475746d49U, 0x7578747775757475U, 0x7475747575887474U, 0x7575737475757475U,
  0x2a00000088bU, 0xffffff78000005fcU, 0xfffff692fffffa0fU, 0x52fffff9e0U,
  0x643ffffef44U, 0x244ffffd9bbU, 0xffffcc3700000690U, 0x798000005f4U,
  0x6a1efffffcb7U, 0x28da0000069fU, 0xffffde7e00000ce3U, 0xfffffff900000ea3U,
  0xfffffd3c00002793U, 0xfffffc9effffddcbU, 0xffffe4d500000f81U, 0xfffffe8400000f62U,
  0x14141415180d1717U, 0x171c161a18161a15U, 0x1814161615031618U, 0x15161616ff163117U,
  0x1513141519241518U, 0x1b10161d1a161114U, 0x1715161615091618U, 0x17171716b7153917U,
  0x1815151617101617U, 0x1016161a15141715U, 0x1615191716121616U, 0x161616167b160b16U,
  0x13171613190b0c16U, 0x140c171414161915U, 0x1717151614171518U, 0x14171616ca150316U,
  0x1518181219291314U, 0x1319171113161013U, 0x18181618141a1418U, 0x181818155e150017U,
  0x19151615170e1815U, 0x1b1a171318141814U, 0x1716181715111617U, 0x1c1715168d151816U,
  0x14191a1517121f16U, 0x1814161512161815U, 0x1619161615281617U, 0x171716153e150e16U,
  0x161a1914171c1815U, 0x121d161410161414U, 0x1718161214231517U, 0x151717152b150616U,
  0x1716171516141516U, 0x1812161615161615U, 0x17161614151b1616U, 0x151615151d162116U,
  0x2de0000023eU, 0x22000000b7U, 0x1c00000486U, 0x31200000000U,
  0x48400000487U, 0x5ba00000318U, 0xfffffff3000001ccU, 0x2a3000001ecU,
  0x1f000000014U, 0x15800000037U, 0xfffffedc0000032aU, 0xfffffeda00000019U,
  0x1a00000034U, 0xffffffe200000147U, 0x199000000c3U, 0x2000000000U,
  0x8b858d8b888b8b8bU, 0x8b8c8c8ac88a8b8aU, 0x8c948c8c8a8a898aU, 0xa18c8c958b8a8a88U,
  0x8caeb1878b898d94U, 0x8d888f8a4c868c8aU, 0x9558848990928d89U, 0x8b868b958b8e9b8fU,
  0x7b898a9093c98d91U, 0x819690878ecfa682U, 0x838a7d8b8388a482U, 0x8d8889888b938b8cU,
  0x8c8f918a8c8c8c8aU, 0x8c8d8f8d8c8d8a8eU, 0x8c878d8b8c7f8b89U, 0x8a8b8c878b8a3b8eU,
  0x88919075ae8a858aU, 0x8b8d9885968a8b84U, 0x708e87839d908493U, 0x8c808c848b828d9cU,
  0x9c9089918a866b7cU, 0xb8888ca3928e8594U, 0x958886647a8e938aU, 0x8e7a898d8b8f8b85U,
  0x858c8c8c8c8d8f8cU, 0x8f8f80958b878d8bU, 0x8b8c8b898b8b8f8aU, 0x8b8a8b8b8b8a8b99U,
  0x768f91898b8e8a8cU, 0x8e9061978c6b8a8bU, 0x868e9b85968cc590U, 0x8c8b89878b858aa5U,
  0x8a8a8d8c908a8c8bU, 0x8f8c8b8e888f8b8cU, 0x7e8a8a8a8e8a8f81U, 0x8d8889828b8b8991U,
  0x9a8c8d898e5c8b8bU, 0x88928f8a8c854e76U, 0x888b8d908b8d8c8eU, 0x8a89848a8b8d8c8cU,
  0x8c8a8b8d7f8a709eU, 0x8c8e97c58b8a858cU, 0x838c90947f8c8989U, 0x89878a8a8b9c8c93U,
  0x878d8a458f8a7683U, 0x879392af8c8b8a87U, 0x888b88ae848a8b7eU, 0x8a388a8b8b7a8c92U,
  0x88878a8a8b8a74a6U, 0x77899d7889868c8dU, 0x8a8a93a7868e8e8aU, 0x88888b8c8b8e8a88U,
  0x8a8c8b7a988d8a8aU, 0x8b8c8f898b8d8785U, 0x85898d8c7d8f8c96U, 0x8c9c898a8b7d8d95U,
  0x6d8a88858492878bU, 0x8f85907d8a7f9787U, 0x89879b8f8d8a90a4U, 0x908a8b888b878a5bU,
  0x7d878a838d908f83U, 0x7c8f9e898f71878bU, 0x80889b858d8ac78eU, 0x9490878b8b8a8a81U,
  0x8d8c898c8d8f8e8fU, 0x9096938c8b929189U, 0x968a8598898d8984U, 0x8d8d878b8b8f8b90U,
  0x948b897e9090888dU, 0x878783888c877788U, 0x848b9a8b908d82b1U, 0x90908c8a8b8c8c89U,
  0xa78789918c898a91U, 0x89959588899c8a90U, 0xa5897e9e8a8a7d78U, 0x8a8c8c908b908a85U,
  0x8b8b898f89948b8cU, 0x8b8b868a8998876dU, 0x818b918c86869190U, 0x8c85878d8b858b88U,
  0x938b8f8d8c8a8b86U, 0x8d89898a8a889484U, 0x8e8a808a8f8a908cU, 0x8a8f43898b898b89U,
  0x908b8b8a898a8b8dU, 0x8b8d8b8c8b8b8a8aU, 0x758b898a8a8a8987U, 0x8b8b8a8c8b8b8b8aU,
  0x838b898c8a8e9182U, 0x88928d908c888e8cU, 0xa88b8c878f8e8b95U, 0x898f8d918b8b8c9aU,
  0xae83878c82828583U, 0x7990735f7c806d8dU, 0xa28a938e978e7c97U, 0x8f8e8f918b828a92U,
  0x528b928c86908e8eU, 0x89888d8a8c7bae93U, 0x7b8ba08a8a88a68fU, 0x8f898c858b8e8b8cU,
  0x8b888b6886868a7fU, 0x8a898a9188858c92U, 0x8e8d878e708c8a8cU, 0x8bac8d8c8b688a8aU,
  0x908c8c888e838d90U, 0x8d8e888d8d75938bU, 0x8e8e738c8a898e87U, 0x8c7c888d8b8b8b83U,
  0x7f888c8d8f929995U, 0x628e8c818688a091U, 0x888b8f99898a858dU, 0x8d87948b8b868b88U,
  0x7a8a8b8c8a8f898bU, 0x7f758b8d8b898b8bU, 0x808b91868b898e8cU, 0x8c89a08b8b898b8cU,
  0x90daa68f7c838b8cU, 0x8e8a8a92478d9585U, 0x84cc92887e76957fU, 0xb18e8a5e8b918e90U,
  0x918d8a8a8d888d80U, 0x8d8f88998e8e888cU, 0x8e8a897c8b87868cU, 0x8c8f8d8a8b898c90U,
  0x8d8c8bbd868ea3d7U, 0x8e7f81488d8f8991U, 0xa18c894c868c8f89U, 0x8d9c8b8b8b8b8d84U,
  0x8a99878a8c8c8b8bU, 0x8c8c8a8b7a8c8a8cU, 0x8a8a8c8b8c888c8aU, 0x9b8a8b818b8b8d8cU,
  0x8b8eb58b8c8d8c8cU, 0x8b8c8d8d8e8d8989U, 0x87798e8a888a8d8aU, 0x8c8d8b958b8b8a8eU,
  0x8f84908a8b8b957fU, 0x8b8a5e7b858d8c8bU, 0xa18c8f8095898999U, 0x8c888a858b7c8b91U,
  0x8b7e8e8c8a8c8c8cU, 0x8b8b8b8c9f8c8a8cU, 0x8b8b8c8b8c8e8b8cU, 0x7f8b8b918b8b898cU,
  0x868a8f8a898a998aU, 0x8f8b4392878e8f8bU, 0x928d937f9e908b8dU, 0x8a8b8d878b798ab5U,
  0x8c57988b8d8d8e8fU, 0x8c8b898dba918a8aU, 0x838a87898c928d8bU, 0xa88e8c938b8a8591U,
  0x8e4f5f8c868b8a8bU, 0x8a8b90878a898a8cU, 0x93be8d8d8d8d8688U, 0x818b8a5b8b8c9386U,
  0x8c95828a8a8a8c8cU, 0x8c8b8c8c858a8c8aU, 0x8db18a8b8a8b8c89U, 0x8c8c8b828b8d8e8cU,
  0x8b868d8b8b8c8c8bU, 0x8b8b8b8c938c8a8cU, 0x8a888c8b8c8d8c8aU, 0x738b8b8c8b8b8b8cU,
  0x888e88a5838dd57cU, 0x8b968a89908b8d8fU, 0x948889718e89868fU, 0x8d848d8a8b94898dU,
  0x8a82798b8e8a8a8aU, 0x8a89858a958a8b8aU, 0x89a58a8a8d998d8fU, 0x96898a958b8ed487U,
  0x8b9fa28b898a8c8dU, 0x8c8c8b8d73898c8aU, 0x8974888a8a868c8aU, 0x8c8c8b9b8b8b7d8dU,
  0x8c788e8c8b8c8c8bU, 0x8b8c8b8ba98b8c8cU, 0x8e848c8a8b8f8b8aU, 0xb48b8c968b8b8a8bU,
  0x8b898991858a8b8fU, 0x8a8a888b8a888d91U, 0x8f8c8b8d8d898a81U, 0x8c858b8c8b928a8bU,
  0x98848d8e95898d75U, 0x8c8d83778e8c858bU, 0x89888c8b92868f8fU, 0x8f858b8a8b878b3bU,
  0x83888c978f8c9388U, 0x8f8e87938a908b89U, 0x778a7f8b7d8d9082U, 0x89998a878b998d88U,
  0x8885998a87898c89U, 0x8e8b858c9b8a8d89U, 0x876f898b8d8f8a89U, 0x7d8c8daa8b899187U,
  0x8a8b8b87908a8c87U, 0x8a8d8e898a8d89a4U, 0x8b8c898a898d8b8dU, 0x8b9184898b898a8aU,
  0x8db0848c8c8a8b88U, 0x8a8c8b89858c8c8cU, 0x8c858c8e8b8d8a8fU, 0xa68c8c888b8b898aU,
  0x97a981847b8ca5c5U, 0x8a8bb7ffaa858488U, 0x87898f797f928a78U, 0x8b998d888b8d91c6U,
  0xab878a8f7e6e8b8cU, 0x77968c9286786485U, 0x9289a8998c8b5b94U, 0x8b848b8d8b928b8bU,
  0x948b88888d8a8b88U, 0x8d868a8b8c858e88U, 0x8c8b868c8d878a8aU, 0x8b88d68c8b898b8cU,
  0x8d798f88938c8a8cU, 0x8a8a8d89a98f8b8aU, 0x8e8d8e8d899f8f8eU, 0x488e887e8b8f8e94U,
  0xa0898a8e8b848f8aU, 0x8787a5838fac948fU, 0x868b6b9e8f8d549cU, 0x908c8c8e8b948a67U,
  0x8d99878c8a8b8c8aU, 0x8b8b888b8b8a8b8aU, 0x8a888a8d89508b8bU, 0x778b8c898b898c89U,
  0x8489898a8b99888dU, 0x8a828d8b8b899500U, 0x858c8489878b8c90U, 0x8b88858a8b8b8a8cU,
  0x7d888d938597a8b2U, 0xbbc68e938487a58fU, 0x868c8ebf7f8f878aU, 0x887c89898b8b8b8dU,
  0x658a8b918d348585U, 0x8d978c8d8a8758a0U, 0x808b8a88898a8d8cU, 0x8d8c7d8c8b8c8a88U,
  0x83898c89886f8c8eU, 0x8a878a8c8b3c8b8fU, 0x8d8aaf8b8d89a58fU, 0x8e888d898b8f8a8aU,
  0xb48c8a91866b878aU, 0x8e8788948ca37097U, 0x998b83878b8a548eU, 0x898c9e8b8b908b91U,
  0xa0888c91907a8b75U, 0xc1968f648b8e788cU, 0xa688967d938e7e8dU, 0x8789918c8b878c95U,
  0xb290898689809088U, 0x8489878e8db89699U, 0x978d328a8e8c9a7dU, 0x8b938d938b908b88U,
  0x1762ffffec22U, 0x473ffffe611U, 0x58a00002e59U, 0x14100000444U,
  0x74a400001c91U, 0x38a3ffffe652U, 0x233f000016f4U, 0x2703000027beU,
  0x1b79fffff276U, 0x268bffffe807U, 0x28b50000275bU, 0x438afffffaf2U,
  0x3047fffff5adU, 0xfffff85c0000133dU, 0x51500001f5cU, 0xffffcf4e00000fadU,
  0x6e50000139fU, 0x103800001952U, 0x624fffff378U, 0xfffffffe00000780U,
  0xffffc7370000180fU, 0x80afffff739U, 0xfadfffff5cdU, 0xfffffd3800002387U,
  0xdc100001284U, 0xffffb18afffffdd1U, 0xffffe075000024f3U, 0xfffff32b000006f2U,
  0x90da00001213U, 0x3a9fffff87b1U, 0xfffff1cf00000320U, 0xffffe3b300000799U,
  0x7c84948188818099U, 0x848282818983817cU, 0x798683837fa4826dU, 0x8388808f83828580U,
  0x8d828484a3808ba0U, 0x8b807e6488808485U, 0x8980838a7f7d857eU, 0x8380838482808479U,
  0x7d83728878847f8fU, 0x7b7b7a7f94858070U, 0x8c7d838482668699U, 0x808c7f8c7c7a7f86U,
  0x9393917fad728b75U, 0x946f78a8977ea786U, 0x8780877e7e7b7d80U, 0x8584858386847f74U,
  0x868481818a838574U, 0x818482857d828480U, 0x8484818380808183U, 0x8483868382858582U,
  0x777887847a817d78U, 0x8780857b70858280U, 0x8384828382888384U, 0x8383828382828488U,
  0x7d8282856e7b8182U, 0x8d84799483857e83U, 0x89817d8185698a96U, 0x807a817885868179U,
  0x88887385758787b4U, 0x8e8976bd8a817fffU, 0x8981848c877b7981U, 0x789282968b808193U,
  0x89508592b0838286U, 0x8586a9778495757fU, 0x7b9783939a98936eU, 0x7557807a987a7295U,
  0x8c937e7248918740U, 0xa084bf4e977d7100U, 0x7a82957c89847981U, 0x907d958492927c81U,
  0x8685857f68838482U, 0x7f7e748082818682U, 0x827a7f837f888182U, 0x8680858181848780U,
  0x7e7b84848a85818eU, 0x8585737f7b84828aU, 0x7e85838483858285U, 0x848281828183837fU,
  0x8483818292838578U, 0x8381828584828285U, 0x848283827f828185U, 0x8483848182808581U,
  0x787a85847a837e87U, 0x8489857177848395U, 0x8282838382888683U, 0x818282828182848eU,
  0x8683857f61838382U, 0x868f768383818285U, 0x83857d867d887f80U, 0x8584838181808484U,
  0x7e7b81868c83827aU, 0x828e718a7983826bU, 0x8184858282848483U, 0x8581838382838389U,
  0x8283858395838381U, 0x8284848384828481U, 0x8381828282818383U, 0x8385838382848483U,
  0x838683848484828aU, 0x8585868f85848587U, 0x8382818284838382U, 0x8283828382828480U,
  0x33a000000a7U, 0xffffffd90000091fU, 0xffffff8100000331U, 0x8d400000fd4U,
  0x112d00000de2U, 0x10bU, 0x83300000932U, 0x655000005ddU,
  0x20d0000010eU, 0x4e7000005d4U, 0xe67fffffda8U, 0x61d00000552U,
  0xe35ffffff90U, 0xfffffe9600000843U, 0x197000009d5U, 0xe0f00000b1aU,
  0xffffff2b00000051U, 0xa000001baU, 0x3700000dbcU, 0x32ffffff9eU,
  0xed0000034aU, 0xffffffe800000398U, 0x3070000001fU, 0xfffff0d30000021dU,
  0xcb8000003c8U, 0x6e00000cc1U, 0xfffffb1800000839U, 0x837000004daU,
  0x3c700000941U, 0x135fffffd9dU, 0xffffffbafffffed0U, 0xbd900000371U,
  0x5e6663615d637d6cU, 0x6769686762636458U, 0x6364636568645f64U, 0x63625863636c5c60U,
  0x945c5f6567634561U, 0x5e6872644c4f635fU, 0x5f626263646d6665U, 0x656365646462605aU,
  0x78575e6b63616164U, 0x71836f68627f5267U, 0x72596b514a5d505cU, 0x617e676773605652U,
  0x6462705e62326457U, 0x6380696464626a60U, 0x8064596669646365U, 0x5b635a4e5e45595fU,
  0x5b69646765614253U, 0x65686b6363626467U, 0x61605d676a616063U, 0x635f4661646c5a65U,
  0x67595e6461656257U, 0x626b725d6b616458U, 0x606f6262622b6672U, 0x6263666963656050U,
  0x685d615b646c6c5dU, 0x5c5f985f6363827cU, 0x5f625e7fcd5f6673U, 0x625c5d5a7b2a8076U,
  0x576068665f625f75U, 0x776039655b60696aU, 0x6665784d605e5453U, 0x545e7a6f95704e65U,
  0x65976170665c6959U, 0x626e9c655d77665fU, 0x5b69716368615969U, 0x6765596568386672U,
  0x675e6a866b7a6a5eU, 0x725b4c6259616263U, 0x6666696147605f56U, 0x616a5d6b676a5e69U,
  0x656361635c646e00U, 0x635c6b6160666462U, 0x606f61636b61635fU, 0x67653e615f696560U,
  0x1e66626997625788U, 0x585f6f608d8a6251U, 0x6a4d6162632d5f58U, 0x616460666460680cU,
  0x6a53646266705e5bU, 0x6462616f5f635a66U, 0x6d72655e62646e61U, 0x5e6c5a596060626fU,
  0x66666958395b5a7eU, 0x5f615f535f606109U, 0x76676364644d5d55U, 0x58624a696265595fU,
  0x6467606d6471645aU, 0x63626f696b716369U, 0x5d67616459615762U, 0x436a696064642163U,
  0x636069607663615eU, 0x6563526560646762U, 0x6262675e5f5a565dU, 0x65605c5b5e6a6462U,
  0x696a656063536e76U, 0x5565705e62616170U, 0x676f666568615564U, 0x615f7763626f5e66U,
  0x585d656268606761U, 0x6262665b5e616466U, 0x744163685e7a5f59U, 0x5c65757d61655c6cU,
  0x766c584166e0796bU, 0x645864656b667b6fU, 0x65426a67605f4064U, 0x5b696c566ea9717eU,
  0x68655c4d60637275U, 0x62682a5f5e6d5f6dU, 0x4f72562168686562U, 0x7c4d531c7170585bU,
  0x5d6c6763623d605eU, 0x6e64675c5e699463U, 0x6067679d5e62585cU, 0x5f6d6068566f6971U,
  0x6066665868656463U, 0x61665f6262616a66U, 0x6360935c66615f62U, 0x495d3b3f5f616062U,
  0x73585f5c61616266U, 0x856c647865646064U, 0x743c6d5d63645f6bU, 0x6869626365646559U,
  0x656270595c5a6662U, 0x636c626662666561U, 0x6e625f5e67675f63U, 0x7a616c685e635d60U,
  0x5b614a6563685f69U, 0x65a4606c5b836173U, 0x4f6c5d5b6d715037U, 0x541a6c5c47657161U,
  0x5c5e714c66d26464U, 0x5c5a5e63606c3e63U, 0x655c5e5eff655f6fU, 0x69515f5f5e576961U,
  0x5262626b655b6356U, 0x68626b5d64636267U, 0x5e4f6d6164615f66U, 0x63675c6a61676640U,
  0x6a624a6f5965587eU, 0x696a5f6f64656613U, 0x5a5c606463616456U, 0x70646e565d625f4dU,
  0x6553604e65506469U, 0x4b7659605e5e656aU, 0x61605e6e8462725cU, 0x6856665b5d5b6778U,
  0x675e617a5531636bU, 0x6578726066686768U, 0x6464665560655861U, 0x3d587c6869636b63U,
  0x6367646a62665b62U, 0x62616562666b6066U, 0x6466635f60636064U, 0x5c67676465615560U,
  0x6161655f67676462U, 0x67666064615e6662U, 0x665e626167625c5fU, 0x666460615e646662U,
  0x5b6d626b5d666063U, 0x6459686a61856361U, 0x6070676065626368U, 0x6785626263597e61U,
  0x6462664a7381625cU, 0x67726462625d715fU, 0x605b665f7e5e595dU, 0x6c6e5d6161556560U,
  0x666365816555605dU, 0x62626a6660696665U, 0x646c876a6c668968U, 0x64646a676b625d65U,
  0x6b62646161625f66U, 0x6d65596965626664U, 0x6967646a64646b5eU, 0x64646a6b6566695eU,
  0x66995f5d60676962U, 0x646f46615a53665cU, 0x635f7063625b5c5fU, 0x7e65616759587864U,
  0x7b5e66965f7d695fU, 0x76577f6363635a60U, 0x68636860475f695aU, 0x5b614b606d636764U,
  0x5f67637262546e65U, 0x665e646364626d68U, 0x64576c6f7f65716aU, 0x5f6063636c565970U,
  0x6a6366625f626a72U, 0x6f665f676466616cU, 0x63696d6b65636b63U, 0x5b606d6d7b6b4861U,
  0x4d68666a64555677U, 0x726e746e66645f51U, 0x604068626d625564U, 0x60576f67666d5b41U,
  0x4b637b6d635f6b50U, 0x61756c4c57636681U, 0x556b61675d74666dU, 0x76686d59606462a2U,
  0x65617f59626d6463U, 0x6263684f5a65616bU, 0x7347636264626361U, 0x6863646a7d596a60U,
  0x62626260625d6264U, 0x6461656663646962U, 0x6463605960616061U, 0x6a836166605f6365U,
  0x6e63614561624d66U, 0x5e59716566646371U, 0x656ecc686a5f8465U, 0x6468635f62585c67U,
  0x665e656567705263U, 0x7a5a646664616765U, 0x6a6866656465613aU, 0x5f645d5864675e64U,
  0x6965624b616a4f62U, 0x6262636965616261U, 0x6171a46363645d62U, 0x64636a6362615e61U,
  0x615f64696c627567U, 0x5b6373686c636467U, 0x666860636360664dU, 0x6963615f64626264U,
  0x6467637064616861U, 0x656067656a6d667cU, 0x646971666a646865U, 0x546b6c6269684a66U,
  0x676568626d6a6766U, 0x6e665c6867626667U, 0x6366626469666359U, 0x6465656369675563U,
  0x686c666662645e62U, 0x5f63596264736165U, 0x637364605e645b64U, 0x526d5d646666475eU,
  0x5e63665d66695a61U, 0x6663466361666663U, 0x6768606167606065U, 0x676661645e686762U,
  0x476f64616367615fU, 0x3c6c715f5e5d5c6aU, 0x4a5a6157566d5d7aU, 0x61536164546c5d5cU,
  0x6661446a78496369U, 0x61746d6064646f61U, 0x4b5f626567656664U, 0x5f53575f5d726066U,
  0x676a615a5a545c5eU, 0x61722a5f68605361U, 0x66655d3140635159U, 0x6c69596a4875695dU,
  0x5c6a5f5d6662645fU, 0x516b9966625e6262U, 0x5b664673676e526dU, 0x6761697043576c65U,
  0x5459656e61645d4bU, 0x46516951685a5e69U, 0x47875e5c5a645360U, 0x6b5e536a676a6363U,
  0x6762696f69755948U, 0x5b4460886766545cU, 0x4d405d6668616761U, 0x516970565f5b6725U,
  0x6c675f60628e6562U, 0x5a5f62675f6f206bU, 0x6e666479675e5363U, 0x596768745f5e5c40U,
  0x5c63655b64615f64U, 0x666b6a6565606466U, 0x69629169615f926aU, 0x7c686d6cad627662U,
  0x6060756563556363U, 0x625c666e5d64615cU, 0x4c8161636d655866U, 0x66636443985b6a64U,
  0x60626a665f5f6361U, 0x6264676662615b64U, 0x606560675a675163U, 0x5d3c615c5a635f61U,
  0x65446055617a5c64U, 0x5e602b5f6b3b525bU, 0x636062464f646660U, 0x745967654d776042U,
  0x67695c875561655dU, 0x5d5f98666c665e61U, 0x6f64525e56677369U, 0x525f231d5e516769U,
  0x6561696161816662U, 0x64466a78695e6c5bU, 0x5e685a616c826055U, 0x665b645c69566678U,
  0x6065645e65606264U, 0x66736e6264656464U, 0x68664f8e64646866U, 0x6a645f695e706164U,
  0x6760646061515f5aU, 0x5b6a7660635f496bU, 0x6b755c5757696265U, 0x5f6966654e6469a9U,
  0x6163636b665b5c66U, 0x67676a6460676766U, 0x7264632b60635b64U, 0x2e5576325a536664U,
  0x5f67606163786466U, 0x5a7060565e655255U, 0x485c666169666785U, 0x665e602158596854U,
  0x5f635f6666626267U, 0x625d626162606864U, 0x5f62676262605c60U, 0x6c676d676d636360U,
  0x6e6860615e5a4b49U, 0x5057625c63646373U, 0x6c75776360626c68U, 0x636a676165676368U,
  0x3d4169625b63885bU, 0x6a59545c6d566461U, 0x788561626051613fU, 0x5b636e6d61645e61U,
  0x5760607465725f61U, 0x6c679067656b716aU, 0x626164647b665068U, 0x5567655f6f435d69U,
  0x665d69636353685eU, 0x6d7142665a656463U, 0x5c5e6e636a605b61U, 0x70656c686d6d5c66U,
  0x6761655b64606464U, 0x5f646562605c6966U, 0x63636e6c6b646666U, 0x6c5b666166667368U,
  0x61626067605e6169U, 0x63635c6462636167U, 0x666565625f646b5fU, 0x616269686f655563U,
  0x636563616661716aU, 0x6163646263626270U, 0x6163626261625d62U, 0x6161586262626363U,
  0x579d596153657658U, 0x60635b5d9c31645eU, 0x64696265636e645bU, 0x6263666464635b6aU,
  0x88716362626a6360U, 0x7862646f65415f5bU, 0x7458655d5d58646eU, 0x5f51625e5f645a68U,
  0x51654e5d776b616eU, 0x5d4a635c5e605e65U, 0x8c6561585465676aU, 0x646d565a5e686761U,
  0x696b5f6f61736661U, 0x5c6466626970576dU, 0x66705d5350656b64U, 0x586d5b6658624d54U,
  0x645f625971676749U, 0x5f6a795c5e5f6857U, 0x6a555e646c57505aU, 0x646652434c627365U,
  0x6c5c6064636e6863U, 0x79626833656a625eU, 0x857261625e6e5e61U, 0x6d5763565a5f675dU,
  0x63646265665b655fU, 0x6461666261645865U, 0x66685f686c5f605eU, 0x5d5d69685e735d62U,
  0x605f685360666d6dU, 0x63605168af656464U, 0x5959636773606666U, 0x24605f5f56694367U,
  0x675f5f6f53666468U, 0x6065726265676366U, 0x5d606a5970625d62U, 0x6865585b64597064U,
  0x636461675f606363U, 0x62635d61675d6164U, 0x62606b4a85614b60U, 0x656763616560545dU,
  0x60616765696a6061U, 0x6364636462646562U, 0x636544646b639363U, 0x6764615c705e1b61U,
  0x6763625d65677165U, 0x5d5c606163616366U, 0x646c876460626b62U, 0x65646462635d6367U,
  0x6c66646360634f5cU, 0x646063605f62625fU, 0x6962626162646474U, 0x6363616162646463U,
  0x6f61645864636364U, 0x5c5891626071696eU, 0x6166586b695f6e67U, 0x596c65606c405f6cU,
  0x6060654f6a6f6364U, 0x625b45655d656363U, 0x6765675a655e5a59U, 0x5865676267695f64U,
  0x625a645c63586361U, 0x5e5e67785758636fU, 0x7c775c596d4f598aU, 0x6867657e65566c6aU,
  0x61625f6068646163U, 0x6167686062615c63U, 0x5e63615b5a5f5164U, 0x60715e5c5e8f6764U,
  0x5b6a619463676060U, 0x6f68796363656773U, 0x5e625e65715e5a62U, 0x6465666366615c59U,
  0x61646755665b6f62U, 0x7169996665676162U, 0x5557605d6167667aU, 0x68636c6963666564U,
  0x5a56696162615d8eU, 0x5349605a64615a67U, 0x5d6f5e5e5f656766U, 0x66627d6664736c5cU,
  0x287296664f6f686aU, 0x58484f4d5660595fU, 0x578c5f6667705b72U, 0x5667635a615f5bc6U,
  0x655a6165626c6671U, 0x6c646064635d6568U, 0x63575d605b636c61U, 0x655f626463516865U,
  0x725e6866755d7871U, 0x65625b73635b616eU, 0x5d4a625e61486969U, 0x6762595964636761U,
  0x6248615c63646567U, 0x7a544c65663f7567U, 0x5f4a666e965c6e5aU, 0x6a57615d654c6d71U,
  0x5e646a72516f646bU, 0x6055666264655b66U, 0x60666f6b5e6b5663U, 0x79637f786d5f6761U,
  0x6164606863656663U, 0x6462646566695a62U, 0x646261565a636360U, 0x5e6a68655d625a5cU,
  0x6a65636264656c5cU, 0x60646f626564655fU, 0x6163606466615767U, 0x67645b5b50607464U,
  0x6165555cdd645560U, 0x5f6260654c69655dU, 0x5a5e565f6a645f5cU, 0x6765696354696563U,
  0x5e5443625e665b4fU, 0x57666ae332606059U, 0x686d645e626d4f53U, 0x625e616265555c7fU,
  0x4e735a776577766aU, 0x394767436a53575dU, 0x47b74f515b655b6bU, 0x65726764575a5570U,
  0x5367637247705e6fU, 0x61516325515f5978U, 0x517c60606a546a5bU, 0x47695454625a628cU,
  0x635e644c614f5d69U, 0x5e6b566060406b74U, 0x665d67646c636a63U, 0xa34d68645a6fd268U,
  0x6a645e7050566369U, 0x5b5b87656c615765U, 0x64676067556d7565U, 0x636474756f575c66U,
  0x5d1a6153626a6264U, 0x6d554f6263576672U, 0x665e5f68636a6160U, 0x703966625a626e5bU,
  0x6d625f315f486260U, 0x6c5f7e6269676061U, 0x646263665b626c5eU, 0x635d5f5c6c5e6063U,
  0x62626c60614b6464U, 0x655e6664635f615cU, 0x5d5d689959615f6dU, 0x645d626c7b545c72U,
  0x6165625f645e6462U, 0x5f6462655f636162U, 0x5f628d6d5f62615eU, 0x60616f707666335fU,
  0x36696564625a6360U, 0x635e64576662666dU, 0x575e64636c5c506cU, 0x64605e6e655f6053U,
  0x6562556e686d636aU, 0x6359616161655d64U, 0x3c63626165675d5eU, 0x775a6c6b5e5f6466U,
  0x4a575d6462675d63U, 0x7b663d6b5e5f5567U, 0x643d702d4f6d665cU, 0x655463654f5e613dU,
  0x69626969564c645eU, 0x5a6591626a695c61U, 0x4b6062786970606aU, 0x7d622d4d57576467U,
  0x6a6863615f575757U, 0x57606d606463615cU, 0x65686c6166625665U, 0x6165566463696061U,
  0x6a6368606e62496eU, 0x665f6a666664646cU, 0x707262676247617dU, 0x5f626e7063625d57U,
  0x605c6163655d5e66U, 0x6565666263536760U, 0x6455586969626b61U, 0x74596b62626f816aU,
  0x6764606b605c6766U, 0x62657b6467606064U, 0x615f656660616d61U, 0x605f6a686c5f5966U,
  0x65686467655b5d64U, 0x6262666563666b64U, 0x64656e6d6e646768U, 0x5f6270646c5c5969U,
  0x5b60696560666470U, 0x69625b68615b656aU, 0x66646968656f6c56U, 0x5d656c6872675165U,
  0x61446b6b637b6f55U, 0x686347645b625392U, 0x5c616a464263a465U, 0x895961606324bf63U,
  0x695c696d62636d6aU, 0x6e635f6b4c66626bU, 0x5c79675560642e27U, 0x705e2c3a4e5d5265U,
  0x6265526a627a6264U, 0x5d80645363656a65U, 0x5d5b636367585d61U, 0x655c626b645f6470U,
  0x6563656e5e626162U, 0x6756676864656362U, 0x5c62518b6c626161U, 0x5f7c62665a5b5e65U,
  0xffffe95dfffff949U, 0xffffd77700003fc0U, 0x50bbffffb572U, 0x538900001ed8U,
  0xb10fffffbf5U, 0xffffd5b500003361U, 0x1882fffff26cU, 0x229100001456U,
  0xffffe35bffffffebU, 0xad5ffffbb6dU, 0xfffff70bffffbebdU, 0xfffffb81ffffd6f0U,
  0x2fe8000011b3U, 0x14c300002ca9U, 0xffffc5f9000053a2U, 0xfffffc8600001295U,
  0x3367ffffb8b2U, 0x1f8200001ab3U, 0xfffffce5ffffe2ecU, 0xffffe5200000032dU,
  0xfffff28200002fedU, 0x61e00006191U, 0x186a000011b3U, 0xffffd02affffea6eU,
  0x2350ffffd70aU, 0x2294ffffd2b3U, 0x1e38ffffefa2U, 0x229cffff6e74U,
  0x2273000026b6U, 0x242cfffffb3bU, 0xfffffdfcfffff5e3U, 0xffffd892ffff9a3fU,
  0x987e81a58298a19bU, 0x359d7979a2829a81U, 0x829caa80bb80979bU, 0x9f7099817d9b7bcfU,
  0x9f9bd2aa96a37a9cU, 0xb7a0af9b9a877c8cU, 0x7c9c827faaa39999U, 0xa2b1474d99a19d74U,
  0x9e7774ad799ea4a4U, 0xa87370a97fa47bU, 0x7d9fb47bc57c9ea1U, 0xa5689c7d7daa6575U,
  0xa9a361b49bb36ba7U, 0xb3afbba29e826e9fU, 0x74a17a7940a89e9cU, 0xadb740449ea7a462U,
  0x957f7c9981979699U, 0x469b80809a889885U, 0x86969c83a5889795U, 0x977f9186879e7e6fU,
  0x9b97799d94a0789bU, 0xa4a19f999488799dU, 0x82968284cf989592U, 0x9ca9666995969780U,
  0x9d787baf799ca9a1U, 0x9ea3756daa7ea17bU, 0x7ca0b17b677c9ca1U, 0xa3679e7d77abdddeU,
  0xaca3f5b79bb773a5U, 0xbbafb4a4a27e6b84U, 0x72a07a7abeaba29bU, 0xa7b89eb8a0a9a66bU,
  0xa67074bb6da3b0a7U, 0x7eb46a60b579ad74U, 0x76a5cb736975a7a9U, 0xac52a47674b7ef5fU,
  0xb4ae45c6a1c85ab6U, 0xb9c6c4aca7775aa2U, 0x67a7747010b5a9a1U, 0xbac1bed8a6b1af57U,
  0x997a7d9f76989b99U, 0x88a27677a0869b81U, 0x829ab07c7f849a99U, 0x9a70947f82a1be63U,
  0x9f9e68a697a66ba4U, 0xa6ada29c978374a7U, 0x7d998081e29f9b96U, 0xa7aea9b1999b9c7aU,
  0x94827e9d8296999aU, 0xe899828098879683U, 0x85979a8474859496U, 0x957f948583a14cb1U,
  0xa099bda096a58499U, 0xa59f9d9a97847786U, 0x7d9682879f9a9694U, 0x96a8a39997989a85U,
  0x98807ca17999a09bU, 0xffa07975a1859a81U, 0x8399ad7d74819999U, 0x9a6e978180a2366dU,
  0xa19f66a999a975a3U, 0x9caca49d9a817393U, 0x7899818553a19a98U, 0xa2aab79c999d9d7eU,
  0x9286859580939593U, 0xd6967f82978b9387U, 0x8893a38382889392U, 0x927b908587926972U,
  0x93967c9893957d99U, 0x8c9d95959288859aU, 0x8692898ab2969592U, 0x9aa19c9393929489U,
  0x3d40000011eU, 0x15f0000002e3U, 0xf6a00000123U, 0xdd00001d85U,
  0x8a6000045a7U, 0x12000047f4U, 0x175200001c5fU, 0x6e900000646U,
  0xffffff91fffff337U, 0x2450000348eU, 0x20c00001e1dU, 0x4b560000075aU,
  0x24b0000017bU, 0x36f3000000f4U, 0x29cdU, 0xaac000044baU,
  0x1fa200000415U, 0xca00000512U, 0x3d400000302U, 0x5d800000027U,
  0x3c810000027dU, 0x7f00002f89U, 0x97ffffe213U, 0x2500000298U,
  0xfffffa77000001e7U, 0xffffefbe00000026U, 0x1aa300001c2dU, 0x3491000001fdU,
  0xffffffed00002f04U, 0x28b0000085cU, 0x12cfffff946U, 0x1c00000000U,
  0x989a9899ab9fa399U, 0x9cab9b9a90b19f9eU, 0x969bac959c999892U, 0x9c809b9797a09a9dU,
  0x85999a9692719b80U, 0x9b71949ca6b3c19fU, 0x97968d9c97a59f98U, 0xa799999c909caa97U,
  0x9893959a9bb8999aU, 0x999b94999c999ab2U, 0xa49c9ba19a9b9697U, 0x99999a99999b9a99U,
  0x9b969b9b9d9b999bU, 0x9f9b99a0999b9a9cU, 0x9b9a9e9a9c9b9ca2U, 0x9b9a9b9ab29b999aU,
  0x439b968b9aa39794U, 0x7e9698aea693a08fU, 0x9d9e8695978d9b74U, 0x9289a49d97937298U,
  0x959b9b9d9fa492a7U, 0x9e9386a5bba8bd94U, 0x8b839b9da39aa897U, 0xa69a97739598a98fU,
  0x919991e06ea59aa0U, 0x8e7ea7939794bc77U, 0x9b9595a0aec49296U, 0xb99f979f889f9cabU,
  0x8a9a8c64999195a2U, 0xa491bb93999297a9U, 0x96a39d9196a49093U, 0x9e8eba94b1d99295U,
  0x99bf8c979aa2a19bU, 0x9aa0779a9c9c9b97U, 0xa29a9aaf999d929bU, 0x9e9a9ab69a979c9eU,
  0xa6a1a19ea598999dU, 0x99999fa99b989a96U, 0x939b7993a09898b0U, 0x99999a9c959a9d9aU,
  0x9b9b9b99979a919aU, 0x97979a9fa0a2a09cU, 0x9b9785979d9996a3U, 0x9692969b9db3959cU,
  0xa6999a9a9c9d9a90U, 0x97ab979d9d9684a2U, 0x969e99989c9a999bU, 0xa5989a95999b8f9dU,
  0x8a8d9b9a8e84a190U, 0x87a893858f86a1aaU, 0x9c9c9696a29ca29dU, 0x98a4a999ada38eacU,
  0x969ba69d9398a093U, 0xa3969e96c377958eU, 0x9ee3929ab0a0a197U, 0x9589a38f9f948777U,
  0x9d989b86959e9a98U, 0xaaa0979aa497ad99U, 0x9aa09f949184ab95U, 0xc7949998b09ea997U,
  0xa5a2a19e949991a5U, 0x9b9dad958ea097a3U, 0xae9e96aaa19c9b9fU, 0xa29494ac9bb29f99U,
  0xb29a9798999d9e96U, 0x97969b9696ab9795U, 0x999b99989d949aa9U, 0x9f9f8899949d9c9dU,
  0x9d9893979a979e96U, 0x9f9b9598878e939aU, 0x8f88989694959b9aU, 0x9499a5a09b9c9aa1U,
  0x9b96919d9a8c95a4U, 0x9d9a999a9898a08bU, 0x9598998e999c9fa2U, 0x9f9b9b9a9a999a9aU,
  0x97a79b9695999a9aU, 0x92979b95989b9a98U, 0x9d95a38b9b97bfa1U, 0x9c9e9a9b9f9b9a99U,
  0x93989a9a9a989999U, 0x9ea79b9b937e9e9dU, 0x9a9a929c9d9c909bU, 0x96a0ad9c99919d9cU,
  0x9698a49a9a9a93a0U, 0x9b909a9f96999e9cU, 0x9e9c9d9aa7aa9d99U, 0xa1999a9c979c9a9dU,
  0x9b959b999daf99aeU, 0x999c90969a96968cU, 0x9796999899989ba3U, 0x9c9b9d92989a9c98U,
  0x9795959aa79c999cU, 0xa29a93989b959c9cU, 0x9f9d9e989698cba2U, 0x9c969a98a3979b95U,
  0x9a99969a9dac9a9dU, 0x9b9a97999a9899b3U, 0x9a979a969a9d949aU, 0x9f9b9b9c9b9a9a9aU,
  0x9a9b9a9a9d9a989cU, 0x93999aab959d9a96U, 0x9c9b9a93989ba39eU, 0x9b9a999abb9c999cU,
  0xa19791a48fa18a95U, 0x8ca199a39aa59fa3U, 0x929e9c97a0a39597U, 0x9790959c93949d9bU,
  0xa4c79f9b9696a097U, 0xa09390969a8e9b99U, 0x9a9aa0c6a28e8fa1U, 0x9c979b9f9da2989aU,
  0xa09396989a969e93U, 0x978aa091a5a39691U, 0xa49a9ea492959d8aU, 0x9b91989c93729a9cU,
  0xb39a9c91a38d9890U, 0xa58a9ca194a1a693U, 0x93979c9a9ca69e9cU, 0x959e9a9c9d857197U,
  0x9c9b9b949a9ca59dU, 0x879999869591a59cU, 0x989c9c989e9091b4U, 0xac9d9d9ea3ab8b9cU,
  0x9a9d979c9b8f929fU, 0x9d90949b91928fa1U, 0xa5869595a0b39796U, 0x9f9e9a859a9c959eU,
  0x9a91989a9bb299acU, 0x9a9c949b999c9ab2U, 0xb89f9ba0989b9494U, 0x98999b979d9e989aU,
  0x94949a9791999c9aU, 0xa59a9d9b9b9b9c99U, 0x9d979c9a9999979fU, 0x9b9a9999b09c9b97U,
  0x97999997989b9e9dU, 0x969b9c98aaa09397U, 0x989c889b97948c93U, 0x98b2938f95a09398U,
  0xa89b989d9b868ea1U, 0xa3849e9ab190a199U, 0x92969099969b9a9aU, 0x9e9c99929c94aaa2U,
  0xbfa49b9d9ca79b9cU, 0xa78fa48f9ba77f9bU, 0x99a49d98aa9097b0U, 0x929d90968ea0a28dU,
  0x9d9a8b979c95a096U, 0xa29e9c9b989494a3U, 0x948a9f9b8a8f95a5U, 0x9099a8a0918893a3U,
  0x999a8d999ab99ba2U, 0x9c9c999a999c9cb1U, 0x92a49ba59b9d9e9dU, 0x9a9a98969b9a9b9cU,
  0x99989b99999a999aU, 0x9d9b9b91949c9999U, 0x9b9b9f979c9ba79cU, 0x9b999799c79b9d99U,
  0x8f9a9d939d9d9c99U, 0x929b9ca19a979aa0U, 0xac839a979d9e8692U, 0x9c9b9b9f9d9a9899U,
  0x99979c9c989b989cU, 0x9e99a0919ba09d9dU, 0xa0a69d9b9c999696U, 0x9993939796979999U,
  0xa392989e929d969cU, 0x9a9b97999d9a9d86U, 0xb5ab9993a098c6a5U, 0x9b9b999a9999999bU,
  0x9b9e9e999e9c999eU, 0xa99d90929b989896U, 0xa098969b9e9aad9bU, 0x9caa9c9b999a9f95U,
  0x9d9e9aa09d9ba098U, 0x9da4a099b5959a9eU, 0x9e97889f9d9798a0U, 0x9bad90849b959f9aU,
  0x849b9b9a9ba39692U, 0x97a29c9ea19e999fU, 0x9b978f9a9eaa9aacU, 0xac9a979e979e8596U,
  0x979b96978599a098U, 0x989f9299a7a7a593U, 0xa29da1929d93a396U, 0x9a939a94a29d9897U,
  0x959f9599a6979296U, 0x9a9b989da5979c75U, 0x96a499999e9ea0a1U, 0x9ca59595a19a9d8cU,
  0x9b9a9b999897979aU, 0x96979f9bbe9a979cU, 0x9b97ad9ea09d9a97U, 0x9886a18d999d989aU,
  0x9699989b9b939b91U, 0x93989f9d949da09aU, 0x9b9692979993999eU, 0xaa9a9c9699969aa0U,
  0x9790909898a799a1U, 0x9b98999a999898b1U, 0x9ca299a299999598U, 0x9b9b9b959d9a999bU,
  0x98a39c9ba59a989aU, 0x9998999896999a99U, 0x9f97a1949b989c99U, 0x9a9c9999ae9a9799U,
  0x889e978f98a0839cU, 0xa6989d9eb5b69c94U, 0x9399af9aa48f8f95U, 0x963bb7929db39a9bU,
  0x92999ca3944d975cU, 0x955ca198919cb599U, 0x8c9991989faf9599U, 0xd59b979c979b78a0U,
  0x94979c9b9a8a9696U, 0x9e98a4999a9d998fU, 0x879a9a9b979a939dU, 0xa19897939c979b9cU,
  0xa0ae9a9fb29c989cU, 0x9798999d9697979aU, 0x9ba2999a9b979c91U, 0x9a9a999a89979999U,
  0xa29c9e9d9891979cU, 0x9c9d98999a9d9d94U, 0xd296998f9c97a2a0U, 0x9b9c97969d969b9bU,
  0x9e9b98979a999c9dU, 0xbc999879969d9a9cU, 0x99999e9c9897a19cU, 0x9ea29c9a919b999aU,
  0x9a999ca4869c8d99U, 0x9798979592a2979eU, 0x939b969faa9eac92U, 0xac99939e619591b3U,
  0x8f959ce9889b9c8eU, 0xac989c90988d9c91U, 0x8aa798929c989398U, 0x9095a7918c79999aU,
  0xa299969c8b939695U, 0x9f939897aa999e97U, 0x9e93a899a095a496U, 0x9b909f988ea39ca0U,
  0x9a9b9e9c9ca397a1U, 0x96a9a39ca5929298U, 0x97959c999e929e99U, 0x9b9ba2a1a395a093U,
  0x87929a96949f9a99U, 0x979b93978e98aa81U, 0xa49b96959897a191U, 0x919f95a094a09c9fU,
  0xa19ba193a1a09ca7U, 0xa39f9385939b999bU, 0x979d99979ea29c91U, 0x96a19c9ba497b38dU,
  0x949b95a4999bb498U, 0xa470969e94998f98U, 0x91949f9793a1a587U, 0x93909aa095bfa196U,
  0x89a1919699979399U, 0x939c999c9c9d909bU, 0x94ab95a294cb9c95U, 0x989b9a9f988c989aU,
  0x9ca6a49797809c9aU, 0x9898a39a97999980U, 0xa28a9a8e99989a97U, 0x9c999c9b9d9e9898U,
  0x979a99968f989999U, 0xa49a9c84a1979a99U, 0x9d97949998999693U, 0x9b979a99819a9998U,
  0x9f8c9e9b9698969bU, 0x99968d97869a9d8cU, 0x98a187949b999d9dU, 0x99ab93ae95a4999bU,
  0xac98999796a79aa6U, 0xa0b09a939b9c8a99U, 0x98989a9c9897a084U, 0x8d9c9e9a9c96a59aU,
  0x949c9d9a9b9c9b9cU, 0x9b9b9c9d9a9f9a9aU, 0x9c95979c9a99889eU, 0x9c9c949c999b9b9cU,
  0x9b989b9998989d99U, 0x9c979b9f8da09c9dU, 0x999d9b9c9c9a9c99U, 0x9992999b9a9c99a4U,
  0x8a929f9b9a948a97U, 0x83a092a3979ba597U, 0x9f928b99939d9a8cU, 0x9c989fad99a193a0U,
  0xa4929b96a19a97a2U, 0x90a096a0a09a948cU, 0xa0aca2979d9ba589U, 0x9d939a91979ba198U,
  0xb694a186a3a1779cU, 0x909a97b49495a392U, 0x99a06b99999c8c8eU, 0x9e9a9ba7975b8794U,
  0x8e9c98909e9a909fU, 0xa67f829f97beb5a0U, 0x999097959b9ba08eU, 0xa5979a87999fa89aU,
  0x8fa29e9e93d2999fU, 0x9d9db6999fa3a4c1U, 0xa9ab989b9893a997U, 0x989a949ca09c9e9bU,
  0x9b999ba3b1979b99U, 0xa599a2b69f9098a0U, 0x999e9ea09e9c858bU, 0x9b969b9fc1989e91U,
  0x939ea49d997e9a9dU, 0x9b98a29c8e9b9a87U, 0x78a69a989e97ac98U, 0x9f9a9c999e9e9b9aU,
  0x9297979d8f9a9697U, 0x8b9c98a79f959d9dU, 0x9e9d8c9b969791a1U, 0x9799999b929a9b9bU,
  0x97a19f988da3a19eU, 0x9a98a19f999b9399U, 0xa095a69b96989393U, 0x9f929894a39c9894U,
  0xa68f9e9aa69e959bU, 0x8ba395a1969c95a4U, 0x969695cba49d91a5U, 0x9b969b9591a09897U,
  0x9d9982999ac2976eU, 0x9999969a9b9895c2U, 0x708299979899979aU, 0x97999a9d9899989bU,
  0x9bc1989add9b9b9bU, 0x919b9e5e959d9b9cU, 0x9b9b9b97999b969dU, 0x9d92979594999b98U,
  0xb2a5a8929b9a9890U, 0x96a3a49992838dbaU, 0xa49697a495a38488U, 0x979db0a29e8e9798U,
  0x9686919ca9a0979fU, 0x919797b0bc89a19aU, 0xa78f9b9b969d9593U, 0x9b8e94957a9c9a90U,
  0x979e9e9a9aa3979aU, 0x97989b9d949d99a1U, 0x9391939b979f8a98U, 0x979f969f97949795U,
  0x9697989e9c979b96U, 0x9c939ba7919f9f99U, 0x9ba79a9b99989b96U, 0x958d9c99919a96a8U,
  0x979e9e979299ad9aU, 0x9b919b99969e9e9bU, 0x9d98bf9c9b989ba1U, 0x98889991a092969aU,
  0x9d989b9a9c989ca3U, 0x968a9a9c998fb0a0U, 0x96a594969c8f9a9bU, 0x93989a979b9da39bU,
  0x9aa897969b9d9c9aU, 0x9699a29dada896a2U, 0x9d96b49f9c9ba598U, 0x9b849d889791989bU,
  0x87989d9c9d849e8dU, 0x998a9e9b9b9eaaa7U, 0x999f9795999b96acU, 0xa6939b9b979b9095U,
  0x9a9c9f9c9ba19c9eU, 0x9a9d989aa7969a9eU, 0xa28f96969a989898U, 0x929f98b096979997U,
  0xa89b96988f9e9c9cU, 0xa39a9b8e9d9b96a0U, 0x9d98af9b9996a08eU, 0x93989b9a8a9f999bU,
  0x7e969e9c95919e9aU, 0xa29d94a097819c98U, 0x9e9b9697a69fa88dU, 0x959cae9da2949b9dU,
  0x9596a1999aa396a1U, 0x97999a96a2a3a389U, 0x9aae999ca29f9d96U, 0x9c9a868b9b969f87U,
  0x9a949e939a92aa94U, 0x92ae9ea2bfde9e98U, 0x9893719c9b868686U, 0xa0da5e8e99ab8aa4U,
  0xafa4a6a09d69999bU, 0x956aaca0e893a88aU, 0x8e92898d9da59a9bU, 0x959ba38fab9bbb8aU,
  0x979a9996979c969bU, 0xa69b979596a8a294U, 0xa2919b9b9c958ea1U, 0xa5958e9a9f93aa95U,
  0x9f9ba0a89b9b959bU, 0xac9a7f91aaa09b9fU, 0x9d9e929ba099969fU, 0x9c9d94aca1919598U,
  0x9c9094959a9c9aacU, 0x999993979091969eU, 0x869d9d95999e9898U, 0x9a97a3959d979c98U,
  0x97bf9994949c989aU, 0x9b9c938ba095989bU, 0x9c909d98999dbd9fU, 0x979f9c9ba3979197U,
  0x9c9a979a999e9a92U, 0x989b98999b999e9aU, 0x9c9f9b98a095ad9eU, 0x99999c9b989c999dU,
  0x9a9b9c9aa49b9a9bU, 0x9b9c9d919d979898U, 0x989799989c9b9b9bU, 0x9ba3989c989a9b91U,
  0x979a9fa29397909aU, 0xa5ae988d9ab09da6U, 0x98a2a09c95b097a9U, 0x889289968694af97U,
  0xa696af8e979892a0U, 0x979aa39db59b91a3U, 0x9fa19f8dae9ba094U, 0xa0948eb2929e93a0U,
  0x91a599b19fb1a197U, 0x91a595a8a795989dU, 0x8592999098659492U, 0x8e969fa08da6939aU,
  0x959b9e988c9a979dU, 0x919b91999a9da189U, 0xec97a79c978d9e99U, 0x9d94a598889aa19eU,
  0xa295969a99939693U, 0x9a9c9e98999596a0U, 0x9f979b919893b7a6U, 0x97989c9393999a98U,
  0x9e969a95999c999cU, 0xa39c9394999e959cU, 0x9b979b98989d939aU, 0x9e979898a3989a97U,
  0x9c9498999f969a99U, 0x9da19798809fa299U, 0x9b97a09899a09fa3U, 0x9d909daf95a29b9fU,
  0xb7999e999a8f93a2U, 0x98889c9c9e9e999bU, 0x9998a0989da2a08cU, 0x9e9c9d9b9d99b39bU,
  0x9c9b9e9a978d9cbeU, 0x9c999b9c98989997U, 0xab939a9d9a9c9899U, 0x9b9b9c989d9a9b97U,
  0x9aab9a98909a9a99U, 0x969b99b4989c9b9dU, 0x9b9a999b9b9a9d96U, 0x9998989a9a9c989bU,
  0xc2a09a9697ad9f91U, 0xa1979d9b86c1a6a1U, 0xb3a19b9e908894abU, 0x9da57d9986a29c8bU,
  0x9c9c739aa493a389U, 0xaf9990b68ca29775U, 0x8e7b989e9896b898U, 0x89858d997ea281b2U,
  0x98949f9a99959d98U, 0x9e9e999e9ca09e8dU, 0xbd9398909b8fa8a8U, 0x9b9b9597969e9c9cU,
  0x9d9c9c989a989c9aU, 0xaf989c7f8f9f9895U, 0x9b939d9b9b99a29bU, 0x99a09b9c8d979799U,
  0xbd9b9b98a09a9c9bU, 0x9f9c9993949f99a0U, 0x98a09b96999d99a5U, 0x979c969a909f9f99U,
  0x9d9b9c9898959d96U, 0x9c98979d948c91a2U, 0x9b8c97999fa0949dU, 0x999e999f9b9a95a1U,
  0x9f9fa2ba90a3a198U, 0xa597999ba797a1abU, 0x8690a090a1afa9a1U, 0xb99a959a9ca99c91U,
  0x979e9aa2659d969dU, 0x9f9e6e7e989f969cU, 0x909e949b9799a99eU, 0xa29e9c998d9aa49bU,
  0x989983979d6e99bbU, 0x96969da19a9c9950U, 0x93a39c82999d92a5U, 0x8f999795a39b979bU,
  0x97a79a9a7b9b9a99U, 0x9c9e9ea09d929b98U, 0x9a959a999d97ae9cU, 0x979c989977939d9dU,
  0x8f9c9aa992918d97U, 0xab8b9a9f989e999cU, 0x82b99ba1a35a937cU, 0x989a9497a8859b98U,
  0xa89698a1a59a9f99U, 0x969d9fa59c8e9c99U, 0xdfa89e9ba09f9c9bU, 0x96978a92a0aa989fU,
  0x9f9d9ca09a989699U, 0x9a9f9a9a9b9c9990U, 0xd69f99929d8f9ea3U, 0x9a9a98919a9a9999U,
  0x999e9696a5999d9eU, 0xc89b967d969e9ba1U, 0x96989e9a9b9aa89bU, 0x9ba49b98989ca19bU,
  0xa5bc9a9299a6998fU, 0x989b7a999d969596U, 0x95919bbe9d96a6a3U, 0x97989eb39598989cU,
  0xa1959a948d9d989dU, 0x999d9c929f979891U, 0x979784939999a1b1U, 0x9a969c98a394a09cU,
  0x8f959b9998949999U, 0x99a39598a089a193U, 0xa09c99989e9da198U, 0x989aa79c9d93969eU,
  0x9498a09a9f9d94a4U, 0x9a9a9b94a2979e94U, 0x9dac97989ea49b9bU, 0xa29a9598a099a08aU,
  0x98989c9499a19e93U, 0x989799989f9d9b93U, 0x7eb19b969792b19bU, 0x9097999d939f9b9aU,
  0x94949b96979b9997U, 0x929e9eb99e999998U, 0x97979c9a9b9e9b97U, 0x9a9f9b99929d9f9dU,
  0xad96969b9a9b959cU, 0xab9995969a9d9d95U, 0x999b99969b97a3a1U, 0x98989a9a94ab9c9cU,
  0xa69f989596999a9aU, 0x9ca29b979c978a9eU, 0x9a8d9a99989b9f9aU, 0x9ca49f9a9e959898U,
  0xaf92989a9fa7979bU, 0x998ea0979f99909bU, 0x968f9b9899958ea6U, 0x989a969c949a9c99U,
  0x9f99b89a999ca39fU, 0x939b96ab989b975cU, 0xa1959499a9a0a797U, 0xa19c9a9d82a19a95U,
  0x95999c9c9993999bU, 0x999b9c9f939d9e9fU, 0x9596979c9c9f969aU, 0x9d9d979c9e969999U,
  0x989a9b9b91989d97U, 0x98969e97949c9ca1U, 0x9ca19a9b9b999b97U, 0x97979c9a969e94a2U,
  0x88a3999a979da69cU, 0x9f99a0908a8c8eabU, 0x959c8d98a48c93c3U, 0x999faa9ba8aaa090U,
  0xa59a8d9a9496a68fU, 0x9b929d9cc4ae989fU, 0x9196a19c8c8e95a0U, 0x909ba4a08f978984U,
  0xb99a99969a989b9bU, 0x9f9d9c96969d989bU, 0x929e9a989a9aa2a7U, 0x989a999c969c9fa3U,
  0x9c9c94979a969c97U, 0x979a949b9e8f9498U, 0x9c89989b9a9d9898U, 0x999e9b9f9599979fU,
  0x9e85949f9a9a9c95U, 0x9a9cb09a9e99a093U, 0xa2949a7397959d9aU, 0x969c9888a09e9a99U,
  0x949b9b958c989999U, 0x969ca0989f9b9a9eU, 0x989ca8999ca2928eU, 0x9a94989b8ba19d9cU,
  0x9b919e9e96979f99U, 0xa199989d8ea19a96U, 0x9b9b819ba0949f90U, 0x93bb80ad93a59c9fU,
  0xac9ba1969eb397a5U, 0x9ab6979797a58f9bU, 0x9aa0a698a19aa38cU, 0x808f999a9c9ba09bU,
  0x839c989c9d989f9bU, 0x9d949a9a938c97a4U, 0x98999898969b9a9cU, 0xa197ad9ca49f9d95U,
  0x9a97969d959d9b98U, 0x969da19cb9a09b9dU, 0x97a2999a96989e9aU, 0x98979aa09399928bU,
  0xa89799999499989bU, 0x9e9a9a9798979c99U, 0x9eaa9c989c98b99cU, 0x9a999c9a99999c9bU,
  0x9c9a9b98979c999aU, 0x9f9d958fa2939898U, 0x9a959a989a9b9b9bU, 0x9aa49e9c9c9a9b91U,
  0x9b969b9c989c9994U, 0x9c9c9a9ea2999e92U, 0x8cc29a9b9894b59fU, 0x92999a96909c9ca0U,
  0x969a9f96a4999999U, 0x979b9daa96999a98U, 0x92999a99979e9f99U, 0x9da79f9c9a98a097U,
  0x8996949a939a9697U, 0x9f9c969ea2929f8cU, 0xa29898989d9c9c97U, 0x949ca09795969895U,
  0x9997a0999f9b93a0U, 0x9e979c9594a39d97U, 0x98b79a96989b9c9cU, 0xa09e999aa795a384U,
  0x9a9b9599979da2a6U, 0x99ad998b9c929aa2U, 0x959b9499999088c0U, 0x839d9d98929b9f99U,
  0x9e969f90a29797a0U, 0x9c93959c7296989cU, 0x979396a1a1ad87a1U, 0x9e94999c9f969ea1U,
  0x969a8f989ab29b8aU, 0x9b999a99979b98a3U, 0x7d999b999a989999U, 0x97999a9a9b9a9b9bU,
  0x99a39a9bb99a999aU, 0x969b9c72989a9a9bU, 0x9a9b99979a999d9aU, 0x99999b9a9297999bU,
  0xa29b9d999d9f8599U, 0x99a0959ab49e94a4U, 0x929e9c96969995a7U, 0x8e9797a4a589979cU,
  0x8f9c909e8f9da489U, 0x9da29a9ea99d98a5U, 0x9c99a59b97a89c96U, 0x89999a9a91abbb9cU,
  0x9f949b9cd29a8e9bU, 0x98b696a59e9b9895U, 0x879b909b9799808fU, 0x896c88a0747f89a5U,
  0x989682a18cb86ecaU, 0xb29fa793716fb1a2U, 0x93779f9480b7a296U, 0xcaa49690958dacbaU,
  0x989a9a9f99a3a59dU, 0x9d98999da29a9f98U, 0x989d9a9898979593U, 0x839b9a9f95a49a97U,
  0x919b9b8698979f97U, 0xa09aab9a9b999a95U, 0x929aa19a99a29d9cU, 0x9a9f999a94b7a59bU,
  0x977d939a99999c98U, 0x9c99b09b99979ca0U, 0xa89f98759b959398U, 0x9c9c9a79a19b9c9bU,
  0x9da19c9da79a989bU, 0x9e999ead9a9a98a3U, 0x989b9f939d9d9789U, 0x9d9c999c989b9a9dU,
  0xbb999a9b9497a0a0U, 0x9c9f9c8f9b9aa196U, 0xa4a49c9ca095a3abU, 0xa4999993969c9ea3U,
  0x9e9c9a979a9a999fU, 0xa39c9a88948e969bU, 0x9b8a96989c9f9aa1U, 0x9d9f9f9c9b9e9899U,
  0x9aaa8393b17e9c34U, 0x9aaeb7887eb1a861U, 0xac98a1a99b87bca7U, 0xa29c8fabad938f9eU,
  0xa1ffa0ae00948390U, 0xb4a2a1c2b19c948aU, 0x959b7aa79f91889bU, 0x93a2aa90d5999095U,
  0x90939c9d988d9b97U, 0x9b9f9a9ca19ea588U, 0x89cb979d9b96c2a0U, 0x9c9c979f97979a9eU,
  0xa49a9b9ca199979cU, 0x8b9995b4939c989fU, 0x959aa09a9a9a9499U, 0x9aa69d9bad989f9dU,
  0x9497929c9bba9aa2U, 0x9b9a999aa09a9cb5U, 0xb69a9c9c9a9e9096U, 0x989a9a9c989c9c9bU,
  0x99999b9b999a999aU, 0xa99b989a96999a9aU, 0xa39f9e989b98a09aU, 0x9a9b9e9bac989a9aU,
  0x8e9aa2a3919ab099U, 0x9ca39a9787989398U, 0xa19ba09a9494aa94U, 0xa0a69c978eb19e97U,
  0x9c968b95a28bde50U, 0xa48fa298a19c8a95U, 0x96999797918c9d9cU, 0x5f9a959a9d8b80aaU,
  0xc39c999598969a93U, 0x949f9b92999390a8U, 0xa69d9e94af94ada4U, 0x9397a196919b919dU,
  0x9f9898999b9c979eU, 0x979d919aa3969495U, 0x9980979c9c9b9ba0U, 0x9caa9e98998b989fU,
  0x7c989e979596b998U, 0xab9699a48c879d8fU, 0x9b97599d958c927cU, 0x99dd7c9d998ea59bU,
  0x9f95a69fa1e99cc3U, 0xa2e4949a94949f92U, 0x9796b195a4939895U, 0x6ea098a4a39ab29dU,
  0x979c989b9e9c9b96U, 0x99929a9c9faa9a9cU, 0x9b99a99a9c93a391U, 0x979290929499989cU,
  0x9599999998969b93U, 0x9c969d9f9fa29f99U, 0x9699959a9a93a39eU, 0x99999a9595989292U,
  0x9b98a49b9a7a99c4U, 0x979c9b9b9e9a9ba5U, 0x9f8e9b9d9b9c9e9eU, 0x9d999a9b9a98999aU,
  0x9cac9b9b7f9c989aU, 0x949d9cc79b9a9a98U, 0x9d99979c9b9c9298U, 0x9d959999b29c9d99U,
  0x9a969c9c8e909994U, 0x83a3969a9a859c97U, 0x9c9c999c7f999c9bU, 0x9798ab999f9494a0U,
  0x97979f989e9d96a2U, 0x9c9a8f9fa0989e93U, 0x9aa69397a3a89d98U, 0x9ea0b6a69c9c9f91U,
  0x9a999a9b9a999c9bU, 0x95999e9d98969498U, 0x98939f9ca19b9e94U, 0x989f979b9ba5979bU,
  0xae9a979c98af9cadU, 0x93ac9a9c97a1909bU, 0x99989d95988f9c98U, 0x8e9ca3959a99b29fU,
  0x9fb09d9c98839b8eU, 0x9c997e9aa4989e81U, 0xacac9db699959da3U, 0x949699b49c9c9f9cU,
  0x92b19a8a8f9c9a99U, 0xa89d958499939990U, 0x989b99a19b9ba79bU, 0x9aa89d9f6aaea199U,
  0x9d9aa29e9a859aa0U, 0x98999c9b9c9a9c82U, 0xa4949b95999d9c9dU, 0x9b9a9a9b9b9c989cU,
  0x979a9a9a8c9a9999U, 0x9e9b97919c9a9a9aU, 0x9e9c9d999b9a9f98U, 0x9b9897998b9b9d9aU,
  0x9c918d98968e999fU, 0x9999939b959c9b99U, 0x959c9c909b9d9199U, 0x979898989699999eU,
  0x9d8f9d9c959b9a9bU, 0x9b9b9e93979b9999U, 0x9c9a9ba69c99ababU, 0x999b9e9ba39a949eU,
  0x9494939a9bb99aafU, 0x9b9b9299999b9ab4U, 0xa0aa9ba89a9d9b96U, 0x999b99929d9b9b9aU,
  0x99939b9b8f9b9a99U, 0x989a9cac999b9c9cU, 0x9c9c9c999a989897U, 0x9a979a9bbd9c9a9aU,
  0x9d999b9b909e9c9cU, 0x9c9f97a0aca0a492U, 0xa2a0a3959299baa8U, 0x9792968b9b97999bU,
  0x919d9b9ea0959898U, 0x97959c968da1a091U, 0x9f9f98979a9c99afU, 0xa5a39e9b9e9c949cU,
  0xa99d989998969e9aU, 0x9f989b9597979a9aU, 0x9aa1999c9d979c9eU, 0x999a999b96979c87U,
  0x979da4999c999c9aU, 0x9b9a97969d969db2U, 0x9b95999a9d9e989cU, 0x9a9d9d9c9e999a9cU,
  0xb29d979892969999U, 0xac9e9d899092979fU, 0x9a9b8d99959d8aa5U, 0x97a1a19f9997b995U,
  0x959a9f9b9b939a96U, 0x9b939b9b8b769da1U, 0x9b93a1989e9d999aU, 0x9b9b97b59d9b91a0U,
  0x8c9d9b9ead9d9998U, 0xa38da794a38d8a96U, 0x9b96a1a69e959393U, 0x9897a096929f9f9eU,
  0x9998c49b9899b29aU, 0x9e9e9994a29998d6U, 0x99879d9975979ba5U, 0x9e989a9ead969ea2U,
  0x969c999899999e98U, 0x9a9e9a99aa9e9c9dU, 0x9a95a3979b9b9b9bU, 0x98909b939b939a9aU,
  0x989b9c9a9a909a93U, 0x9b929ba1989ca19eU, 0x979ba0999ca19ca3U, 0xa298999a9e9b9294U,
  0x7f999ca290979a99U, 0x93929ca1b1a29f96U, 0x9e9f7f9a9c99a4afU, 0xa2b787969aa4979dU,
  0xa59c9a989b7b99a1U, 0xa97d9e9484a29d9bU, 0x96ab90a1988a959bU, 0x9c9a9c98a49ba9a6U,
  0x9599a0a09eafa69eU, 0x9b9c9fa0a08f9a9aU, 0xaaa59495a083a48eU, 0xa8a49ba5979ba095U,
  0x929697988a9c989eU, 0x9c969479a093a592U, 0xc996a3939890a0a1U, 0x99a296a78ba69591U,
  0x9e84799d989596a6U, 0x9c90b5a0ab8f9bc0U, 0xc4b99b8a9c9a8f9bU, 0x959a9f9993a19b99U,
  0x819a9783ae9c9b9dU, 0xb799939396989b93U, 0x9996b7979598a799U, 0x9bae9b9d9da8a59eU,
  0x979a95979192989bU, 0x9c9d979a9aa0a290U, 0x77ad989aa391aaa1U, 0x9c98959e9898a19cU,
  0x9c969d9a979c9a9bU, 0x8f9a8cb09c979ca1U, 0xa0a1939f9b9596a1U, 0x9e9f9fa39699979cU,
  0x959b9ba39c8b979cU, 0x98979a989d9b9e9aU, 0x729e9c9c9f97a999U, 0x9b9c989e9c949a9cU,
  0x9f9b9c9e9a9b9a9aU, 0x8d9b93b496999c9bU, 0xa5a1969a9c9e929aU, 0x9a9a9b9b999b9a9bU,
  0x899b9c9d9e9b9d9cU, 0x9c9d9b9e99a29a95U, 0x9793959a9f998ba7U, 0xa29f919a9c999990U,
  0x9d99999c99989c98U, 0xa295a39783a39b9cU, 0x99a9999a9999a698U, 0x998f9d99979d9ca6U,
  0xa69b9f979898999eU, 0x99969d969893959eU, 0x88a49f9f9a9ea589U, 0x9696a49fa198979aU,
  0x96999799979c9a9aU, 0x929d979eb8929a9bU, 0x9990979b97989298U, 0x999d99989499998bU,
  0x9ea29b9b99aa9ba4U, 0x979b939c9e9f9ba0U, 0xddaa9aa0a092b69bU, 0x909a98a1949b969dU,
  0x9ba89a90b3989c99U, 0xb19b99879b99999cU, 0x969b929b979eb199U, 0x9da5a09687989a9aU,
  0x999c979a999c9b9aU, 0x9d9b9b9b9998979aU, 0x94939b9f9a9b9698U, 0x9c9c9c979b979a99U,
  0x9cab9b9c9b9b9999U, 0x939c9c9b979d9a9dU, 0x999b97929b98a197U, 0x98979999969a9a9dU,
  0xa0908b9b99b19985U, 0x9a9a939b9e969ca7U, 0xa0939aa19998a597U, 0x99999c9596999a98U,
  0x9a899998769b9c99U, 0x979b97a2a1989b99U, 0x9a989b9a9c9a889fU, 0x9a91979abc9d9d9aU,
  0x909a9b9da49fa0a0U, 0x9aa39d98a99b9890U, 0x9f949896979995a7U, 0x949d97959fa19a98U,
  0xa19c99a0a1999e9fU, 0x9d959a9a8e969b96U, 0x999e999896988b9dU, 0x9f98999a9e8aa99cU,
  0x94a4a48a9c8fac9bU, 0x9aa4989cb2979ca4U, 0xb1979b8d99a38b90U, 0x939b9daa96979997U,
  0x9d98978e8c9c9d9aU, 0xac9cad819f97999fU, 0x8798bb9694a09893U, 0x98999a959c998d98U,
  0x999a9abea3999e9dU, 0x9e9f9a9d9995a199U, 0x9aa0999e9bb89e9eU, 0xac9d9b97ad989c93U,
  0xa2959898a49a999cU, 0x9a9781a3939a9d9aU, 0x7f91939c99a1a1a1U, 0x9d9e959d99a59e99U,
  0xa79c989797989b9fU, 0x9e969b949693939dU, 0x94a19e969a9ea78bU, 0x9797a49da1999a98U,
  0x969b9897989d9a9bU, 0x95a19c90b48f9998U, 0x9c909b9a9898909bU, 0x999d9a998e99988fU,
  0x9b9b9c9999909aa2U, 0x9a9a9b9a9c9a9a96U, 0xa69c9a9b99999b9bU, 0x99999a9c9b9b9a9aU,
  0x9b979a9b8c9a9b9aU, 0x9c9a99ac9c989b99U, 0x9a9a9a9a9a999899U, 0x9b9b999a9f9b9b99U,
  0xa3a19896b99f9f9cU, 0xaa9ba5928c9b859eU, 0x98a39d9f9e9392acU, 0x97a39c9c92a0a89cU,
  0x969d9c989692af85U, 0xa8909f969b9590b6U, 0x967aa39f8a9690a1U, 0x859895a59e8e91a0U,
  0x97a199a097989f9aU, 0xa2909f9d9a9491a9U, 0x9a9a9b9fa39497b1U, 0x9b92a294a4a4a196U,
  0xa698939b97a19d98U, 0x97a19d9fa2a599a5U, 0x97a89a99938da0a0U, 0x9897a2a58f9b9399U,
  0x8c9f9d96a29f9a96U, 0x948f9993aaa88d93U, 0x9b85a39a92918791U, 0x9792939795a39894U,
  0x9f93929aa49b9a97U, 0x9fa49795a2a19791U, 0x918d9a91918e839bU, 0x9d989795a08ca091U,
  0x9999929593a1af9aU, 0x9da1a1b68da7a292U, 0xa0928e9ea0899e7fU, 0xa996a99b9a9ba1a6U,
  0xa69aa5a4a196b578U, 0x859da3a1cb98ae8dU, 0x8f849a949ba696a2U, 0x829aa3a599a39f7dU,
  0x9e9a9b9a9699a097U, 0x978f9b9c92a19e9fU, 0x9b97989c98a0998fU, 0xa49c919d9b9a9599U,
  0x92959c9a9d9c999aU, 0x979b99a09b9a9fa6U, 0x9f9d9b999ea0a495U, 0x9591979596a2969cU,
  0x9f9b9c9e9a9d7e9cU, 0x999e99a39e9d9599U, 0x9c9899999a9d968fU, 0x9c8aaba09da6979bU,
  0xa4959b9e9984a08aU, 0x9a91999d949c8a96U, 0x979ba394979da098U, 0xa6999a99979c8d9bU,
  0xba9a94918b9a9f9eU, 0x9da59995847ba3a4U, 0x98a17196a69e8ab2U, 0x8ea4b1a1998da59aU,
  0x9897a096989298a0U, 0xa37c8a9a8c7fadacU, 0x9ea09697a6ad9c99U, 0xa09b9ba495978d9fU,
  0x98978f9b9ab59988U, 0x999a95989a9999a2U, 0x82939b9b9b9c939bU, 0x979a9b979b999a9bU,
  0x98a9999ab29b999bU, 0x9a9b997c9a99999cU, 0x9a9a9c99999ba599U, 0x9a969b9a9c98989aU,
  0xc09a9a969e9f949fU, 0x979c9c9b9a969596U, 0x9c9c9c9a979ea27bU, 0x989aa29a9a939799U,
  0x989e96989c9b9c99U, 0x9a99969cbe849b95U, 0x9a839b9596989798U, 0x9a9f979695999b8eU,
  0xffffefc3fffff2fcU, 0xfffff940000035ceU, 0x1ab4fffff6beU, 0xffffdf2afffffd03U,
  0x18a60000284bU, 0x1fd00002171U, 0xb3dffffec8dU, 0x149b0000214fU,
  0x1ecfffffeef0U, 0xffffeb1600002338U, 0x17f00001e85U, 0x20f000000f77U,
  0x145000022b0U, 0x24a100005308U, 0x458d000017e9U, 0x2ce100002979U,
  0x4fc200002c6aU, 0x14d2000023feU, 0x4a1000021c9U, 0x38f2ffffa302U,
  0x22d30000126aU, 0x194200000c62U, 0xf0400000af5U, 0x2e57000014e1U,
  0xbe8ffffbb0fU, 0x1898000025c5U, 0x2039fffff380U, 0x2e9000018ceU,
  0x87b0000017aU, 0x12e80000235fU, 0x3d37ffffff28U, 0xa5d00000af0U,
  0x20e1000009edU, 0x1cda00002186U, 0x10f300002717U, 0x18c700000e59U,
  0xfffff1630000363eU, 0x143400001752U, 0x2541000015b4U, 0x2dec00002dc1U,
  0x4a13fffff359U, 0x199600001af4U, 0xda100001f48U, 0xffffe7eb000008a8U,
  0x1ff8000014b7U, 0x19e9ffffd9cbU, 0x255bfffff0a4U, 0x29100000c7cU,
  0x2126000030e7U, 0x35affffe4f5U, 0x155b000010ccU, 0x106d0000138dU,
  0x6c9ffffd96cU, 0x1666ffffccf1U, 0x177900001ca8U, 0xffffe7e20000240fU,
  0x122500001a30U, 0x1a5900000f02U, 0x28fbffffef38U, 0x11a800000a0dU,
  0x539d000007a6U, 0x68b00000f8bU, 0x102400003771U, 0x229500001c11U,
  0x68696c686665625fU, 0x675264676665705fU, 0x916b6673746b6683U, 0x5e5c6875665b6a6eU,
  0x6f6961457e7a7b67U, 0x674a5b6a755f5c63U, 0x65626063685c6364U, 0x676557657c766967U,
  0x696383733461605eU, 0x715f5e6594686463U, 0x626f655c64616369U, 0x6b6c735580635f62U,
  0x3e5e667b8f74626bU, 0x646e6871626c6968U, 0x675e73656a65616cU, 0x6873656b685f606fU,
  0x6d68525a6a67586aU, 0x6167636860635d4dU, 0x454f489d91575e7dU, 0x58566a566c5e605fU,
  0x516a6b8a5b61826eU, 0x5c80685b3762655bU, 0x536d585f5c645b63U, 0x5660625f4d9a625cU,
  0x546c6058735e3e6cU, 0x4362656f83636162U, 0x5d6b617359566472U, 0x6a5d8a745b5a4c6aU,
  0xbf6c575b494e5f5eU, 0x663d67a8657b6f73U, 0x6578995e575e6256U, 0x657a705b5f5f6255U,
  0x66676f6c66657864U, 0x6974676667666b66U, 0x6668736d70686667U, 0x746168686667696aU,
  0x5f66627560546666U, 0x6f6e696979606464U, 0x6f6364666c5b6666U, 0x6d675e686270696aU,
  0x726383638c626d5fU, 0x6c625a7b6a6b6766U, 0x6363656168686566U, 0x67706f604a615f64U,
  0x3768666654636663U, 0x66677b6e6467666aU, 0x665f6e685d666564U, 0x6864636a6a626172U,
  0x6c6b5a536c6b5c76U, 0x5e7262635c5f5a5cU, 0x4b5490584c775e7fU, 0x43546a976c675c65U,
  0x886a6a74d1617f70U, 0x5b8b695a4862605bU, 0x526b716032605864U, 0x4d68666ba24f735fU,
  0x527156939860766fU, 0x90635a4b7a656058U, 0x5a82634f50546361U, 0x716456675a5d7370U,
  0x704b61a64b905948U, 0x673e486162756478U, 0x597042607e616053U, 0x68847260595b635bU,
  0x857d2f3c7d872c9cU, 0x47995046a52839adU, 0x8e204b425855444aU, 0xa49d814699594103U,
  0x5e7abc4100744e86U, 0x51229238d09a8c65U, 0x1ca4825a2daa615dU, 0x507e96824e4b4549U,
  0x3792073270ad9e9fU, 0x4f999f4e311e9a17U, 0x3f5e63a147316495U, 0x9314439bce6795acU,
  0x31805c12534e382aU, 0x8e56492b66ac86a7U, 0x5eff53406d45ab1cU, 0x89617a423a589c1bU,
  0x63646b656464ac66U, 0x6762686f5b6a6a6cU, 0x59664a6568796550U, 0x584d625864616069U,
  0x59645d55676a5066U, 0x588058693f5a6363U, 0x636168655d5a5e67U, 0x90645d6452657765U,
  0xba66716f425a6560U, 0x4f575c8e49745a6bU, 0x5f526448625e665aU, 0x65695d57625d695dU,
  0x9368687b80586e61U, 0x608a9f5e65636568U, 0x6961716b596a5b73U, 0x624e6d6969625b6cU,
  0x67676d6d66656064U, 0x676d656767656c6aU, 0x5366756463646669U, 0x7361677165666b69U,
  0x726762766e576665U, 0x756a6a6b76606265U, 0x6f616665995d6565U, 0x6a675d6b6167696aU,
  0x6d6287686962655dU, 0x78635d6d67676768U, 0x796b65636c676466U, 0x677068644b646164U,
  0x8364666e5b786481U, 0x65706e6365696264U, 0x6a5c66686d67636cU, 0x676b64696d646073U,
  0x6166646364615b68U, 0x6967696d5d6c635fU, 0x7869785b55606553U, 0x634d62616160586eU,
  0x6a6660725e685168U, 0x8c6a5762335c6363U, 0x63635f64ad566067U, 0x686c656c65536768U,
  0x4c6476634f5b4b60U, 0x7258614c4d6f5970U, 0x9a5c62685e61666bU, 0x5f6666575c5c5864U,
  0x43675d55736a73adU, 0x618b5064645b5a6cU, 0x6968506d6b695a6dU, 0x604f6b6666645c62U,
  0x6967676c67667961U, 0x675e666467646a5eU, 0x6968666466686665U, 0x616768656963656cU,
  0x6767626564716969U, 0x6961666c79646665U, 0x666467666a626765U, 0x7466686a6a656666U,
  0x74627c6369626a62U, 0x65665f6d72666762U, 0x726766616c686568U, 0x6b69676376696a64U,
  0x6c6766687964636eU, 0x66726a66656c655fU, 0x656667686866675fU, 0x685f626b6c656371U,
  0xd1fffffc31U, 0x450000075dU, 0x13de0000108eU, 0x17fffffff9U,
  0xcf6fffffa3cU, 0xffffff8f0000187eU, 0xe7c00000d5fU, 0x14eafffff7adU,
  0x130dffffff76U, 0xffffffcb00000f79U, 0xffffffb0ffffffabU, 0xfffffff7000020b1U,
  0xea00000157aU, 0xfffff47600000720U, 0x11c00000043U, 0xffffff2500000c9eU,
  0xffffffdf000000f1U, 0xffffff2f00000c0eU, 0xfffff5600000016bU, 0xffffffa900000000U,
  0xffffffd400000ecdU, 0xbd200000de2U, 0x62a000011d4U, 0xfe0000012fU,
  0x13f600000c47U, 0xffffffdf00000705U, 0xfffffe73000012abU, 0x18e0fffff8dbU,
  0x167100000f51U, 0x12700000086U, 0xfffffff300000074U, 0x2600000000U,
  0x10b3fffffbe4U, 0xfffffffc000001dcU, 0x2ac000002a1U, 0xffffff6bfffff938U,
  0xfffffee7000013c1U, 0x3a00001184U, 0x80500000028U, 0xffffffd900000ef2U,
  0xa19fffff868U, 0x101600001ab6U, 0x5330000161cU, 0x190000004fU,
  0x3fffffab0U, 0xfffff03a00000688U, 0x154ffffffc6U, 0xfffffcff00001240U,
  0x15e80000006bU, 0x2beffffff55U, 0xc1f000000b0U, 0x9700000206U,
  0x70fffff840U, 0xf41fffff598U, 0xfffffed200000009U, 0xfffffff9ffffff84U,
  0xfffffd2f0000207aU, 0xfffffeb200000c4bU, 0x2a0000156cU, 0xd11ffffdcdfU,
  0xd7300001586U, 0x15cc00000ca3U, 0xfffffbf200001829U, 0x3b3fffffff3U,
  0x637d6b6668806b69U, 0x7c6a6f6865536357U, 0x6c7066676a60686cU, 0x707461676562655bU,
  0x6b6a706964706c70U, 0x5f686a656976686aU, 0x6e6b6e656e6a5a62U, 0x6b76686b6c6c7765U,
  0x6b986d676b6e7466U, 0x6661786a694a646bU, 0x6c65685f65686e6aU, 0x685a666663606059U,
  0x6961736566686b6dU, 0x6f6b6c6e60696659U, 0x89666d6a6a6f6b6aU, 0x366a5e69765b6c4cU,
  0x6a61695e5a666a69U, 0x6e666d746a665e67U, 0x6369726a686a646cU, 0x6775757c5f655b65U,
  0x6e5c6763686b626bU, 0x666769666a5f6874U, 0x678e6e656a6b6c68U, 0x78736867637b6761U,
  0x636a716b6456685aU, 0x6b5f66686c70686fU, 0x6c66696864606e61U, 0x816466695a686c67U,
  0x68646365696b6469U, 0x9069616e78726d65U, 0x6564686162746880U, 0x61676b6b6f64676cU,
  0x6e6e665d666a7368U, 0x5c6b62696b616269U, 0x6c637064636c646aU, 0x6d706a6c6b5f6268U,
  0x696c6d65716a6b61U, 0x606b666560616c61U, 0x63776868696d646bU, 0x6e6c676c73636367U,
  0x715f666e6b726b69U, 0x6763736e6b706a67U, 0x64775f6d5f5d6b6eU, 0x696a6171655e636bU,
  0x6f6f626e666a5e64U, 0x6c6f716767656d69U, 0x6864666067676b67U, 0x5d70676663606467U,
  0x61636b5766697166U, 0x6667766e96676268U, 0x646369617c65666aU, 0x676a5a6065677965U,
  0x67616a645e727164U, 0x62646d6c716a6e69U, 0x5c5d656b60786769U, 0x5e686863695e6764U,
  0x69675f6666666b84U, 0x68696c606169685dU, 0x6c5e61656e6d5f65U, 0x666b6664686a616aU,
  0x6a686a6b68783971U, 0x4f625e626d6b675eU, 0x6e4f63695f748170U, 0x666e636362636f63U,
  0x66615f686d70676dU, 0x7280686a616a6762U, 0x6e67677471625e70U, 0x716b6d636665646eU,
  0x656863726d6f6a6cU, 0x70736c5f566a656aU, 0x6863916d75677167U, 0x6466696d647a6a67U,
  0x64646d627564726bU, 0x676b69656f68696dU, 0x8067696267686861U, 0x6a666a696c65666aU,
  0x716656656e616785U, 0x6865689369686861U, 0x6e6869686962686cU, 0x656b6a6d64656163U,
  0x646b68826967666bU, 0x686a696e63666269U, 0x6969646a666c6562U, 0x67656b686c686b67U,
  0x62736e68696a6d63U, 0x686769676a6a6664U, 0x6574686a696e686bU, 0x6565766969676763U,
  0x69676a69696c6951U, 0x6a6b6c6965656c72U, 0x656b6c6c466e6668U, 0x7e6867656868696aU,
  0x676a6b6868695e71U, 0x6366676560616969U, 0x6368676c685f6c62U, 0x6d65656568676b69U,
  0x5d646c6c56666964U, 0x675d5570685b685cU, 0x656a6c5a656b5a64U, 0x5e6b5f5b67696b5aU,
  0x5e685d65525e6469U, 0x6664666d7e8c6967U, 0x6b5b676c6b777361U, 0x616b7a626264616eU,
  0x65674b5e696a5751U, 0x5d6b646d69676770U, 0x62636b5260616765U, 0x71605d696f6f5259U,
  0x675f686472635d62U, 0x6f64565c616e5e61U, 0x7164596d625f776fU, 0x645f5469636d8865U,
  0x6471696b726a6667U, 0x7a6e5c6d6a6a6469U, 0x6967636d656b476aU, 0x616d7565675f6a6aU,
  0x6b6d5b6b63646b6cU, 0x656f656862686466U, 0x6c5d65606468606bU, 0x666968606760686aU,
  0x676a5c6868636866U, 0x64756c62675f7070U, 0x6965696c63666c6bU, 0x696763656d5e6168U,
  0x66655f6661656166U, 0x696f6967606a6739U, 0x63636e716a6e6e6aU, 0xa167686a5f4f6a6dU,
  0x725c6c6f785f6a68U, 0x5e69696375645e62U, 0x6681606d6f696e6bU, 0x68756f5f626a626eU,
  0x655c576b6b716e5cU, 0x5f6e656a5c5a6f6dU, 0x7b606e70626b6772U, 0x606e6565586a7663U,
  0x5c7d7b6d66647561U, 0x6a6d6f60636c6766U, 0x6f6b627466616a71U, 0x6a6e5d6d5c6d7055U,
  0x66636961616b6a6fU, 0x64656a7169686c6bU, 0x795c6d5b725d6569U, 0x766963667f785f7dU,
  0x5d6e7d656476665bU, 0x7b6364666b796459U, 0x527569696c716764U, 0x6f6e64696d636773U,
  0x6a6a717467696760U, 0x656554556475656dU, 0x676465666c6b6262U, 0x656769666a6c7369U,
  0x6564666862686d66U, 0x6a5f866b656a7767U, 0x6a686664666d5c67U, 0x6b43636763496957U,
  0x616b516960696466U, 0x6e63676764696d66U, 0x74676a6b6675666eU, 0x5c6467a252646e69U,
  0x69696969656a6968U, 0x6a68726f6c69695fU, 0x676c716d6c65696cU, 0x69686f6e676a6b66U,
  0x6b6d67686a6a6863U, 0x65696668606c6767U, 0x69736a6d6a6c6062U, 0x7263676d65726666U,
  0x696b5f6b69636667U, 0x6a67626b6f6e6769U, 0x6a6866696b6b6569U, 0x6866636a656b6868U,
  0x6768696667696b69U, 0x8267666d736a6a65U, 0x606c6a656764696dU, 0x606b68656b676b6aU,
  0x5e69416d646c6b42U, 0x6c5b6f6263756b61U, 0x696671756c5d655fU, 0x6075636e686c6974U,
  0x7464686269775a68U, 0x5d6e568f6c646a6cU, 0x6c6a6c6f6965675fU, 0x65666462736f5c64U,
  0x5b60726a6076606cU, 0x72596e705d627965U, 0x69636866676e6a6fU, 0x66486e6961436c66U,
  0x665f746e6b70646cU, 0x7a65716761626c62U, 0x5e64756375716468U, 0x5a62676c596a786aU,
  0x696766826c765064U, 0x636278553d647859U, 0x69706c5c484d6256U, 0x655a605777776d68U,
  0x55726e665b794e6aU, 0x5a6579627e937b6eU, 0x6a6e5c65684d5f6cU, 0x5d6e7c795d566c6fU,
  0x6168626066746575U, 0x59735d6e6e697b72U, 0x505f705972736465U, 0x6c6c557575725c67U,
  0x695e5b69694d7f55U, 0x64585058726e5666U, 0x677951736266615aU, 0x745f5d696f6d8067U,
  0x6664695e696a696bU, 0x706c64686f606366U, 0x78526f6e77725e5aU, 0x5a786b6d6667623fU,
  0x74676874664b5b66U, 0x726a815f5b5a6369U, 0x6a706a745e74686cU, 0x66695f616e716764U,
  0x6d615a675d67646dU, 0x7c636a6e5a674e64U, 0x675f606860626668U, 0x68616d60666d6a69U,
  0x65636d646e756569U, 0x6562756b66656c6dU, 0x585d7b666f61616fU, 0x6956626b556b7564U,
  0x676a666b64686568U, 0x6667686a6d686d67U, 0x6568696466626467U, 0x6a7169696a657569U,
  0x6a6e6c686a6d6769U, 0x676869676b5a7e5aU, 0x656869646c87656cU, 0x646b6d62676865a8U,
  0x6769676969646967U, 0x6e686966676d6865U, 0x6666786567606d67U, 0x6169695467666c66U,
  0x6a68666968646c68U, 0x746a696a696e6867U, 0x6c536a6466685250U, 0x6b6d656c6d626166U,
  0x6b69667951626169U, 0x6b61576f6767604fU, 0x5a6c4f635e576863U, 0x6362575e60706c63U,
  0x6368575b51806669U, 0x5a5f6e686c816f6dU, 0x6c66706b5b76666eU, 0x5b6f7a81555c7667U,
  0x556c7e6a5d608171U, 0x626356614d6d606aU, 0x626077776b736b6cU, 0x695f716f5572684fU,
  0x6b595f6b5f626d60U, 0x6f63645c65735e63U, 0x7468616261696b68U, 0x725e6f6c7a6b856dU,
  0x5e68645d636b6962U, 0x68675d7073685e71U, 0x596a5f6460786377U, 0x797b68686164606bU,
  0x6365636d6b527663U, 0x6b694363595b656eU, 0x506b6b716b6a6d67U, 0x72655f5f6c626d62U,
  0x6a5e5b6973716768U, 0x61506b6173617566U, 0x6971656a6167646aU, 0x634b666e63646266U,
  0x6a6967696662686bU, 0x6c766b6b6664686bU, 0x6559636b656b6376U, 0x67746169546a7960U,
  0x9b626966505d6563U, 0x616e7b6557696472U, 0x6c6263686b6e565cU, 0x7074676870626167U,
  0x636e5d6c60686466U, 0x676d6565585c5e6cU, 0x665e63736c67705cU, 0x6d5c60676952666dU,
  0x686e656865747069U, 0x646a6e63515b676eU, 0x747168766a6b5e6cU, 0x6c6b726d5d64665fU,
  0x64616d6766685f75U, 0x696861796c66606fU, 0x616d609774676864U, 0x6d6c616b68655e60U,
  0x745b55646a646a61U, 0x626a606f6f866469U, 0x6f65686366696969U, 0x6c646b6562706453U,
  0x68615d69666e686bU, 0x616d715b5d676667U, 0x677b6461676e6366U, 0x6b66656c635f6c65U,
  0x666259676e746669U, 0x68606b68696c6f69U, 0x6b6a65635f676f65U, 0x6754656470726865U,
  0x6a62776766696268U, 0x6c696c645e6a616bU, 0x616165716c6b6c6bU, 0x6a675d747565795dU,
  0x696c696c686c6a72U, 0x6a756e6665696c75U, 0x6563566d66666b8aU, 0x746b65626864676aU,
  0x56696d6a73658b64U, 0x6e667c6c63646868U, 0x6761766a7762666eU, 0x736a686966676166U,
  0x666d726f69676c68U, 0x56696b5c8c616169U, 0x707c69646a666673U, 0x69686c6f5c626969U,
  0x656c676f7857696dU, 0x677c5f7e68686467U, 0x6b695c6557696465U, 0x6781696f60685b75U,
  0x666e6b646b676d66U, 0x6e656b7156686167U, 0x646564666c64686aU, 0x666c75693a6c6b68U,
  0x6751606466666769U, 0x68676a68686f3f6bU, 0x6571666c69616664U, 0x6b6d7760666a6e37U,
  0x6568736966686674U, 0x6f746d68646c6b6cU, 0x6d6764635e586765U, 0x536b6691696e6d66U,
  0x676269686a6a656aU, 0x446766666c39606eU, 0x707b6b686466827cU, 0x6c7164696e6b7362U,
  0x67636a6765636569U, 0x6567656768616a70U, 0x6764686a6b656767U, 0x6268696668676866U,
  0x686b686a65616869U, 0x6d676769686b6765U, 0x6a6c6a666c686b67U, 0x66696768646c6967U,
  0x656b6566676a6969U, 0x67696b66676b6368U, 0x6a64666767686967U, 0x68686b6767696a6bU,
  0x666556676867666bU, 0x6a67666a64686867U, 0x60676b68686a6767U, 0x6d666d6466666765U,
  0x645f6965686b676dU, 0x5f7369656b6a6078U, 0x6282626662706479U, 0x7a59686866546291U,
  0x5f6366666d5f7868U, 0x6d64447362756667U, 0x5369675d6a646a6bU, 0x7064666b6a626d6aU,
  0x66676d6a81617569U, 0x5b7a74656e6f6366U, 0x65776a7066697167U, 0x674e696d6a4a6a65U,
  0x70737461675c6a66U, 0x5f72676a68666766U, 0x5667656c6765666fU, 0x64784d5d6a644d5dU,
  0x5f6462625d676f6fU, 0x6a70556958696d71U, 0x6773656d6965716dU, 0x6d67616b6c64696dU,
  0x6f6b6661656b6c6cU, 0x6f676c5e65626b63U, 0x63636a716761606eU, 0x696b696677696868U,
  0x776f686b626a6a64U, 0x6c6d726765677369U, 0x696a646f6c6b5e6cU, 0x6570706a676b6568U,
  0x706b62706a6c6067U, 0x666f6b6b746a6c6bU, 0x5d6d6c686b6c6d67U, 0x6e6c6867666d6b70U,
  0x6868698669646669U, 0x6e66628a5d696767U, 0x6565696d6e6a6c68U, 0x666768695d697d67U,
  0x6962656668666e6eU, 0x68616568696c6775U, 0x65696b60645d7965U, 0x6b69747967686b65U,
  0x666c656965546a68U, 0x696c6e716a6c6451U, 0x626d6b6d45616468U, 0x656c6667666b676aU,
  0x6a656b6868726267U, 0x676b676b6a647368U, 0x6561676e69736e6cU, 0x5f69656c6a66746bU,
  0x646e666565696d6bU, 0x6d67666769676c63U, 0x6b5f6a6367656561U, 0x62646a696a5b6b5dU,
  0x6c6b6f676562616cU, 0x666a666369676867U, 0x6c6c6368696e6965U, 0x696968656a646b67U,
  0x73655e696d6a646aU, 0x6c6c666f62676168U, 0x6463666b65676368U, 0x696b646470716564U,
  0x6a66706a626b6765U, 0x6a626f626b6a6a67U, 0x746367696c676b6aU, 0x6b62635f65646f69U,
  0x776a615d7d5a6965U, 0x767053646b616e6cU, 0x685f7662665f6866U, 0x6c5f936066637569U,
  0x687283655e72626bU, 0x70666d5d84686171U, 0x6258637375676863U, 0x6e6b6e6374686762U,
  0x78695d686e4b6e72U, 0x6965626d75615f56U, 0x695f686b69776d68U, 0x61647c6c69686772U,
  0x6a65546774645963U, 0x557a6a5f6c5c6a57U, 0x74637678636f6a5fU, 0x3b61586955517966U,
  0x626968616b656464U, 0x6a686b6d6568616aU, 0x696a6c6067666461U, 0x6b72665e5a665966U,
  0x684b6b686e676661U, 0x69656963716d6e6bU, 0x6960666a68795a66U, 0x6064686e6c62675eU,
  0x6c6962656a4b6868U, 0x69686d656862695eU, 0x6260656860666565U, 0x5e676c6a6c63706cU,
  0x6a6668686a67566aU, 0x7d6a6c65ac666b63U, 0x6c5a6b7b62627071U, 0x5c666c6061667c6aU,
  0x577469678c4a5f4cU, 0x65706b655f546c5cU, 0x5e686b5d684b745aU, 0x5c7958606b727357U,
  0x56684d5e738a6488U, 0x5461696256806e6cU, 0x686f5b625c67755cU, 0x6562676958617865U,
  0x6872695e5f678776U, 0x605e665e6772596dU, 0x645d768b6872675cU, 0x655d6e6b53746f58U,
  0x6d5d7379625f6368U, 0x8a5e6a5a5568616bU, 0x736c65805f7d6e68U, 0x5560606955706c60U,
  0x696d5f5d666b676bU, 0x6d6b666f71665259U, 0x535e656e60466469U, 0x6b776b6768805d64U,
  0x656273496b9e6361U, 0x4767795b69627363U, 0x606c696a60754e63U, 0x68686e5c4e685d73U,
  0x4d5a7067537b846cU, 0x675c5f606167645fU, 0x665f5f79606c706aU, 0x6b5e806c51726c6eU,
  0x73685f7f54676867U, 0x5e7169665f706966U, 0x606163606a726c71U, 0x55606463666c5969U,
  0x686c66566666756aU, 0x696877aa79683a67U, 0x64656b6d6666606fU, 0x69756e6666626667U,
  0x64365c65676a5c6bU, 0x6867696475606978U, 0x616d6f64607c6d65U, 0x6b74706e686c6d5eU,
  0x67666068686a6b6fU, 0x646f6f6b65666a2bU, 0x716a736b7b5c696bU, 0x686566606866705eU,
  0x6a646168696d4563U, 0x55686365755c6c68U, 0x655a6a656e5e5958U, 0x7069656570697b6aU,
  0x646d64786e667867U, 0x69666819606b7568U, 0x68646c64756e666bU, 0x686d6a694e6a4966U,
  0x639666686b686669U, 0x68656c656a62636bU, 0x64756d6c646b6068U, 0x6c69617367696b76U,
  0x67645f6968676a5fU, 0x65696b656965687eU, 0x6e696c705761686bU, 0x62676865696c6d67U,
  0x6b666568696d6361U, 0x5b6a6a6b7f5f6d6cU, 0x6b4e666a6a696f6bU, 0x6c6e686b65696b67U,
  0x50687567686a6767U, 0x7769636e666f6b5fU, 0x67826662675b9268U, 0x69615b6f6a74636aU,
  0x6466696d5c706366U, 0x5f66706d7b976966U, 0x86626a746d6e6f4aU, 0x676a6a595a675b65U,
  0x62a76b666b606465U, 0x6344576469526966U, 0x666368616b705f67U, 0x696d6a68686e6d78U,
  0x696b62686f67616bU, 0x755e61626266674eU, 0x5a6c5f6661627064U, 0x7a64715753805998U,
  0x426d6b737c666662U, 0x7c6962675c6e675fU, 0x646b695568606b63U, 0x66627d586a686b65U,
  0x60676e606172686aU, 0x6d69656378726f6dU, 0x6c605d555c6a716cU, 0x631e706d6b5b6163U,
  0x685e6162686a6c65U, 0x5f7a64666554646bU, 0x6a6d6a626d676d68U, 0x626462676a626662U,
  0x6c6a54676d645d6bU, 0x6c69686e856c2759U, 0x7b63682a79616c66U, 0x626b72666d6e7874U,
  0x6769676e69686a69U, 0x6a66734969696d69U, 0x676669696967646cU, 0x6870706964666368U,
  0x6a6c696966696967U, 0x69666c696b685c5cU, 0x6664695f626d7069U, 0x696b72666a666a1fU,
  0x6a65696b696b6a67U, 0x666a6c6567686a73U, 0x6c675a6a626a6a6aU, 0x62686a5f69686764U,
  0x6a68666a686a646aU, 0x6e6b686662626a64U, 0x689b67666a666a86U, 0x6860686a67667167U,
  0x62605b6a6f3b6452U, 0x664f6c6c69576559U, 0x6d6867666a695868U, 0x6586745f6b64634eU,
  0x686a5b6e78756f68U, 0x5e575f51497f6b62U, 0x6459676a6b725f66U, 0x606c72655d5e8572U,
  0x686772636a777061U, 0x687557676d62536eU, 0x67626d696869705bU, 0x69515a714c67625bU,
  0x6d5f646963646868U, 0x8865796955705e67U, 0x7e6a6c7161717076U, 0x7b69576565787971U,
  0x6c7d6a66696d6b69U, 0x6967686a665b6763U, 0x66656a6468736a67U, 0x6368676b6868676bU,
  0x6c6a6c676b656a6cU, 0x6868666c656d6a6aU, 0x69696763686c696aU, 0x686c68686d696269U,
  0x6b68666c676c6369U, 0x6d6a796e68615f68U, 0x676a656b696b676bU, 0x676c676a656f685fU,
  0x68736168666d6a67U, 0x6a656a6867676c69U, 0x7d6968666864676bU, 0x5d69796072696774U,
  0x5e647365678d6b6dU, 0x7067615e608d6973U, 0x696f646b6b6b7068U, 0x696b656e64586c88U,
  0x6a66606b635d655aU, 0x6e6669736d656b6cU, 0x6c606279646c636fU, 0x6a6e6b64676e6563U,
  0x646c6e6a6f6e585fU, 0x68616d6867758164U, 0x6c6f675568636d65U, 0x699159628558676bU,
  0x655d795d676d6a66U, 0x6a68686f60656c62U, 0x556b696a6b686e67U, 0x5d697a6156697861U,
  0x6a605f6a585f4861U, 0x5e686c665e646c8aU, 0x6d65726d74755f67U, 0x6c675d6d625c6f6fU,
  0x7a5b5c73756b745cU, 0x5b6a4e5c756d6959U, 0x64656e605e666b67U, 0x55706071506b5a6cU,
  0x5c686374635c796dU, 0x746c5456735e5660U, 0x6c6d647e615d7869U, 0x6070737165617379U,
  0x5a996a6167757170U, 0x6167627769636f59U, 0x846d665d676f6a5eU, 0x606875674a65595fU,
  0x70565f736d636664U, 0x65676669636d6b72U, 0x6671606569696b72U, 0x6564695d686f6c6aU,
  0x61655a636069706bU, 0x6a6769746f65646dU, 0x62656c676f666d66U, 0x68696d6c616e6e6aU,
  0x627465626c6b6d69U, 0x586a5d646f647067U, 0x6f656c67716c6962U, 0x67646a675d6e6d69U,
  0x645d6a646558706fU, 0x6d6b646f6c686867U, 0x50726568676b6a66U, 0x746b6d5e6a6e7160U,
  0x4b6369686831686dU, 0x496d656c5c6e687dU, 0x6d70696468526c65U, 0x6369686568766469U,
  0x636b5567707c6162U, 0x6e6473667d716769U, 0x745d665b6465696aU, 0x66616e6d66674f67U,
  0x5e706e646864686bU, 0x677b536267966c64U, 0x6963696667669f5eU, 0x67677765686d697dU,
  0x67716d6763665f66U, 0x58696c636c67665aU, 0x6b6b69676d646c61U, 0x6c645f615e5c627cU,
  0x636b736266666867U, 0x615e6b6763656861U, 0x6f705d5f4e736583U, 0x73726e666561656aU,
  0x5a646c6f6474825fU, 0x69654e5d6a6d6a6bU, 0x606e646267666b6aU, 0x726c6a6d74537065U,
  0x6f615f66656d5e69U, 0x525b695d795f7d66U, 0x677a666663646868U, 0x66536c74546d5960U,
  0x636c5e6782556966U, 0x68785d6663676267U, 0x68614e6b565f6b6aU, 0x6e846f665c6f776eU,
  0x63766d6a5d5f6868U, 0x716d7667675b6d5cU, 0x676f6c6a67668367U, 0x66696b6266676966U,
  0x6a655e6a7663666fU, 0x676463626a6d6b68U, 0x6d73677765676f77U, 0x6461666c63626a68U,
  0x64706b646b6f6b6dU, 0x68616e69736a666bU, 0x68666e6166797667U, 0x7061646a65656d64U,
  0x696a656763686d66U, 0x6d6975636a6d6952U, 0x6d616e6f6a816a69U, 0xaf686c5f56806866U,
  0x70618369645a686fU, 0x69647563626a656eU, 0x6c6461796f576866U, 0x6273666a6b5f6567U,
  0x666254776760646bU, 0x71686d57615a6d69U, 0x715f735860655d66U, 0x66666864666c5e6aU,
  0x667870676365686aU, 0x6a6e676d696b5d6bU, 0x6866696563656768U, 0x66626b6b7a5e826aU,
  0x676b676f6a69656aU, 0x5d686b6d6c676b5eU, 0x4e6c6d62645a686bU, 0x65678377615e716aU,
  0x76606165603f6974U, 0x7c69766367616273U, 0x67686a6e6c635766U, 0x6f7c676d63646365U,
  0x6864586a6a6d6b69U, 0x706c6c6f6e6e6a67U, 0x6e5b6c6e676a685aU, 0x736b6866616a676bU,
  0x624c676f70676366U, 0x69725d68679f676aU, 0x6969667866695d6eU, 0x7063656972636a61U,
  0x69606f65706d6e66U, 0x686d6d6569696054U, 0x6b6370606f6a6c6fU, 0x92685a6651646c7dU,
  0x6d61676369646a69U, 0x5e6b69746d6b626cU, 0x69696e646a656969U, 0x676a6b676a676b67U,
  0x6a61646b6a6a6b6bU, 0x696968696e696c6dU, 0x676b6a6d676c6566U, 0x686f696a656c6d6dU,
  0x676860676b696d6bU, 0x6c676e6968686862U, 0x6664686662656566U, 0x6967676b68696e67U,
  0x68696d676a6c6366U, 0x73696b696b6c6764U, 0x5f5c6d6a6569696cU, 0x746b666b6e627064U,
  0x6967646e67706566U, 0x756b746264816b63U, 0x6875696b6a656a6aU, 0x6b736b666b656862U,
  0x676b696b65716b66U, 0x6c6b695864616a6cU, 0x6a5c696967696367U, 0x686f6b69636b6a67U,
  0x697178676c6b7065U, 0x6765656b65626c67U, 0x6a6d6a6f6f666c66U, 0x6962686a6a65646cU,
  0x6e6475676b667068U, 0x6968666a686a6f67U, 0x5d6969616b696460U, 0x5e6b5b5c485d6c6fU,
  0x657d686269766f66U, 0x6f6b60696e72664fU, 0x64656f616677676aU, 0x6c65696e6e68655bU,
  0x6e6565676e646864U, 0x5b6a65656f6e6967U, 0x5e6d65746b6d7368U, 0x716b63656263766cU,
  0x6a59586968756067U, 0x706d6769645e646eU, 0x676c66715e6a5866U, 0x6958616869676161U,
  0x6a6379696d6d6965U, 0x736b6d666c686767U, 0x9065676c6b6c6c74U, 0x666958666f677670U,
  0x696e7c626351696bU, 0x686968696322635fU, 0x5e6a676769636968U, 0x626868676a84636aU,
  0x6a6a7b6661836770U, 0x6766607a7f866860U, 0x6c6266696c6d7260U, 0x686b6c6f6b65736cU,
  0x6b6c6f6a71606567U, 0x677c8b68696c536aU, 0x6b63656461696667U, 0x696e686757797050U,
  0x646c4d6e65676668U, 0x61656069716a6a5cU, 0x72666966685f6a67U, 0x57667b596d6c4f70U,
  0x796f60626d678263U, 0x5a6c6f6b715a615eU, 0x73686e575d896b70U, 0x767b627869635f64U,
  0x706569617c636e65U, 0x586e63616c4d6865U, 0x676365605e63526aU, 0x74685f5e715e6862U,
  0x7269657768606d69U, 0x795f7076617a676bU, 0x5a7a688760627778U, 0x666663695e635a4eU,
  0x697c6d71647b6b5fU, 0x61737a5b5f65666cU, 0x5f5f675e6b626575U, 0x6d76666c53576e79U,
  0x666a6b62686c7667U, 0x666869547d686a6aU, 0x686667697b666b6cU, 0x666c666659686769U,
  0x6a6166656667706aU, 0x6868656a6c676277U, 0x666b6165626a6a6bU, 0x656a656467666f6eU,
  0x6b6871656665696bU, 0x666a6a6766696967U, 0x6e6564665f666a63U, 0x5a6b687065686664U,
  0x68676a6b6773436eU, 0x6666656365656869U, 0x675a646765709065U, 0x696a68666767756aU,
  0x7e606371735e6464U, 0x6d5e55735667776dU, 0x68676960646a696bU, 0x695f66666e724e67U,
  0x635d74635d626766U, 0x6b606e5e6e716f77U, 0x6f68617d65437476U, 0x686869706565665fU,
  0x6372626c646e5d66U, 0x5f5d6a6d6a626d5fU, 0x656f7064717a6767U, 0x6c69635b69706c72U,
  0x6567666569636566U, 0x776560686166686eU, 0x6f5c676264755a81U, 0x516564645860526aU,
  0x55597169645c6561U, 0x61686a6765576d5aU, 0x5f69656f6d616b6aU, 0x6274596466627060U,
  0x686a696858726a68U, 0x686364716f6d6972U, 0x6b656f7470686768U, 0x676c75655e6e6c6dU,
  0x658370666b65726eU, 0x646b656763475963U, 0x6864695f6e6e6e66U, 0x66616669615f6b55U,
  0x676278676d6a6b6aU, 0x687267756d666f53U, 0x646972636f626a69U, 0x97686d667f617665U,
  0x5c69617069676670U, 0x5c687a6969636663U, 0x6672685f6b6a6367U, 0x695d706c68606869U,
  0x696e735b5a4f6d64U, 0x7664675f6464606dU, 0x6373695f6b667d62U, 0x705f69677471666fU,
  0x826b5e6a5f61566bU, 0x6a7b636864656a69U, 0x6763685369645a66U, 0x6a697a6d6c695270U,
  0x6c5b6e7574686e6aU, 0x6d6c626b59656964U, 0x6d6a6a6f666b616fU, 0x646b69675c596c5fU,
  0x66666d606f6b5b5eU, 0x686f6c695770685dU, 0x63706c6161507064U, 0x636658756b6f6e6cU,
  0x5e5c65665a756a6eU, 0x65706a6d896a7872U, 0x6a5c6b6457655d74U, 0x7c796c4f60726152U,
  0x5a70646a62767171U, 0x526d6963646c6572U, 0x6565715a5e566d5dU, 0x63715f4a61706862U,
  0x6f6f6d69695e5f75U, 0x4d665a646e6a656dU, 0x695566606e60835aU, 0x6f5b716c776e8072U,
  0x6c6b5a676581697cU, 0x606e62646b63636bU, 0x8251647071706269U, 0x625f65686147654fU,
  0x66616f5c6e446d6dU, 0x7574895d677b6364U, 0x5c636d6269726668U, 0x676965636564776bU,
  0x60636a6a6e688468U, 0x6e818c67715a5264U, 0x6f6b6f6764646363U, 0x686d705e7c896255U,
  0x76775959666a6e6dU, 0x6b6d6b6c5d6a6a67U, 0x78676f68635f696fU, 0x5b64613b6a615073U,
  0x64785e6666776c6dU, 0x68696b626c566260U, 0x7162686465736367U, 0x6f73636d64516276U,
  0x6e65735c77666b61U, 0x6b6c68616d586468U, 0x5b69684b6b65496eU, 0x6562696378667f67U,
  0x6c5873845c726a6bU, 0x6a5a716b676d7064U, 0x616e677367656785U, 0x687477696351674dU,
  0x69876470646b6c69U, 0x69656d6557656960U, 0x6b63696763696067U, 0x5a6c6c785d54867cU,
  0x6c6a6a5e68676d68U, 0x6f696d6869656a52U, 0x62686462616a6a67U, 0x6c6b6878696d686fU,
  0x746a7976625b6769U, 0x5e6a69626b806b6bU, 0x635c5f65626e6370U, 0x766e6d6d6e5b6e6bU,
  0x6c52607079637861U, 0x6b6c927068736662U, 0x5d746657666b746fU, 0x656a68646c6f5a5bU,
  0x666c5b706c726e5aU, 0x646f695766666760U, 0x6c66676b6e606a6aU, 0x5d6a665e5f65627aU,
  0x4f6760666c686773U, 0x746772724a656d74U, 0x636361765e555d62U, 0x686c3b6161626f60U,
  0x6c835f68697d5866U, 0x5d677266738b6f6fU, 0x5a706f525c678066U, 0x5e6879606d596c74U,
  0x73606a6667537a72U, 0x6466616e6d6e775fU, 0x5c68677e595c666dU, 0x656160646a5e6160U,
  0x6865646c5f637255U, 0x7866695f6e6e616bU, 0x5a6c64866c707d57U, 0x7060596a7e647267U,
  0x646849636c77696fU, 0x68695e6f707b6157U, 0x7d5f626967746a6bU, 0x53755f67663a643aU,
  0x6669725a68626a6dU, 0x656b6e7b656d696dU, 0x676669626c6b6168U, 0x6b67686b64687167U,
  0x676b676a646d6f69U, 0x65607a66706d4d67U, 0x69696564666e656bU, 0x687d686a716d675eU,
  0x6c6c52656667696aU, 0x6f6c68685f685f64U, 0x6d62696f686e6573U, 0x606a694d66686e61U,
  0x66666b6969657269U, 0x6767666b65666a67U, 0x6366616b65676671U, 0x656c6e926b666766U,
  0x75666a6568666d6cU, 0x6765636b67696566U, 0x686c656869696669U, 0x88666962686a6b68U,
  0x6b666a6d6665626eU, 0x7166636966685e6cU, 0x6a71696768696b68U, 0x6a66686b6a656768U,
  0x67616a6967746a6bU, 0x656a6b6768666963U, 0x6667696669646a69U, 0x697061675f696262U,
  0x6363756965696566U, 0x7268696668636870U, 0x5e5e6e6f6a5b6a60U, 0x536e6768676b6758U,
  0x6d64587165646364U, 0x5d6b945269666968U, 0x716e64716968676aU, 0x656d6866576a6f63U,
  0x7a6469696b6a5f65U, 0x6f695966676b576aU, 0x6c69696168677065U, 0x6b6a7167736f666eU,
  0x667479495c6e6a6cU, 0x6a636b666a676965U, 0x69696365696b6966U, 0x67616c79566b7062U,
  0x616d694c6d67ae6fU, 0x726683795965506aU, 0x6968685e976a6b70U, 0x696765637a6a6165U,
  0x5a68676869697469U, 0x6864676c6965705dU, 0x6872676f696d6069U, 0x6468796c66626e73U,
  0x65657165685b6e6aU, 0x7f6b626369646600U, 0x756064635e62666cU, 0x6e656c73666d6f68U,
  0x69675e6767ac3d6dU, 0x506c69626211706cU, 0x6467676c5e635a73U, 0x707d6f63576c6f66U,
  0x5c656b64b05d6764U, 0x7c6b646c6b656163U, 0x6a60718b6b5e6b6cU, 0x6c705f68666c625cU,
  0x6d61466467637170U, 0x69685c6537686564U, 0x644f704b6f6d7a67U, 0x67795e6469746f69U,
  0x6c657f6a61706a64U, 0x69806b5e5c6c6967U, 0x645f616067686665U, 0x5e606465656c785aU,
  0x67686a666e6b6168U, 0x7f665e486d547b63U, 0x675d5b405b6c6c75U, 0x6a686463685c6d59U,
  0x657671666372676eU, 0x746a686d69576a67U, 0x6d6a64696a6b6d66U, 0x6a686a6369626764U,
  0x666c716264676971U, 0x69676e6e60676769U, 0x66716c666b675d76U, 0x666a68656e676f65U,
  0x6a76696863716e66U, 0x646165696d537068U, 0x6c656a6e6a677f64U, 0x6a62696a6d676955U,
  0x6d68716d6466666aU, 0x6a67646a656a676cU, 0x7b67666f696a6a66U, 0x5169616e6a6a775eU,
  0x7e68646a7a686c67U, 0x6e5f676464676c63U, 0x6b6d6a6d6a677468U, 0x6764656564686566U,
  0x696964656f6d6a5bU, 0x6569646365666a62U, 0x6d636a64696d7573U, 0x656570646a676567U,
  0x656b6866666d6966U, 0x6b6e676e6c62666aU, 0x676b6563635c766aU, 0x6069646a69676469U,
  0x686d6967686b6568U, 0x73666c6a6b626865U, 0x67666b67666c636cU, 0x646c676659686c6aU,
  0x5f76506765686f5eU, 0x65696a6063746551U, 0x6f4c72656b746d4cU, 0x5a716876696a6551U,
  0x7869625e6a5c515eU, 0x6b729786655c6865U, 0x806062665e6e626bU, 0x67696c697b676d66U,
  0x75566671636f6067U, 0x80637871556d6369U, 0x5e61636565636571U, 0x6a72666667575960U,
  0x71675f74597f6762U, 0x695c6e5b62666e65U, 0x74626f6272636a66U, 0x6957596158677d67U,
  0x625667584c626a6cU, 0x6d71727063616062U, 0x666c6671636b6968U, 0x6a658961626e766aU,
  0x6a806c6a59745d76U, 0x6b64666d8375606bU, 0x6a5a605b75738363U, 0x636f6e7c655a6b77U,
  0x676a746d6d346e5cU, 0x686e629367735761U, 0x68886a686a3b7465U, 0x656a616a5f716065U,
  0x686867626b6a655eU, 0x4e64605c756c796aU, 0x656e647b6e697064U, 0x7265676f7e5f9666U,
  0x7d65696b616a6769U, 0x596d67676e6c6e68U, 0x6369666b6363686bU, 0x6367696068656f65U,
  0x6a6c6565646f6b5fU, 0x646b6c6964716b68U, 0x6b6f6f6c6866656aU, 0x599171566f776065U,
  0x676672656768666cU, 0x6877616561646f6dU, 0x62616d616b656b63U, 0x6c64666668655862U,
  0x6b6e63686d646469U, 0x6b63625e556a845cU, 0x736b639e5a686c68U, 0x5a656b686b676c6fU,
  0x4558636c665d6b58U, 0x6d616a6c6a566554U, 0x5e60616863517970U, 0x6268687973766360U,
  0x6e6b5a5e5f7a6571U, 0x5a60665e787c6e72U, 0x60606d6a686a6c7bU, 0x776a6d66566e6570U,
  0x5e5c656b5c6a7768U, 0x68675a6e6561586cU, 0x6b6f6563697a7170U, 0x6a6567675b735d61U,
  0x685d676467696764U, 0x65676468706b655fU, 0x5a6c697c6b756c74U, 0x796d45686976766dU,
  0x5c62896768656c77U, 0x616f66686e656561U, 0x5a6a5d6b6363686fU, 0x6c7762706851674bU,
  0x646563696e676d65U, 0x6d6585336d6d6a6bU, 0x676869676f686764U, 0x716b676870665b6aU,
  0x64606e6a6c6b6769U, 0x6763696470664867U, 0x6a6f656965696d6eU, 0x696f696b6c756a65U,
  0x6162776d67666968U, 0x6e6f6c6c67656261U, 0x5d64696c5e6d6572U, 0x6a6e6c6c666d6c66U,
  0x6f646b637b67676eU, 0x74645a6d68635a75U, 0x6a5b696d67684d6dU, 0x6a826f68685d5f6dU,
  0x6864686a5d6d6a61U, 0x6f6d6a726b726a6eU, 0x5f666b666d6e7150U, 0x6b6967626e6e6762U,
  0x6c65616a6a73615fU, 0x64696a6967776a6bU, 0x6e696e66636d6e69U, 0x6a6f67666d5d6268U,
  0x6b6673696d65666dU, 0x66675876696a787aU, 0x686b5e626e43706dU, 0x4696c6c7d536f62U,
  0x67696a696b636b69U, 0x677169615e626469U, 0x7467666468606566U, 0x7d6b697366676867U,
  0x6b65666a6f6b6767U, 0x65996b6a6d656268U, 0x616766716a6d6567U, 0x676a6c6768666c69U,
  0x6b6e68966a65686bU, 0x666b6464676a7169U, 0x6574676768657195U, 0x666468676d676a66U,
  0x8b716a75696c6368U, 0x626368636d686966U, 0x626665656b646762U, 0x6c67676762646766U,
  0x685d576469526a67U, 0x68656c646868667eU, 0x686d656c69636975U, 0x667367636b586769U,
  0x60634c5b675d7070U, 0x6b694f7b5f626a72U, 0x5763725968626563U, 0x6662656763695e69U,
  0x677e6e667766606bU, 0x60715a696e657769U, 0x676a666b63677468U, 0x676f6b6a5a5c786aU,
  0x6563686b655e6970U, 0x616b63786967675dU, 0x576966675c556470U, 0x64738455665b6f64U,
  0x686a6b645f676a66U, 0x60671f4a6a695067U, 0x6a636a5e6460696aU, 0x6b626b647c646e6dU,
  0x616a606c666c5d7aU, 0x696a646e635bff6fU, 0x6b6166696b7e6f5eU, 0x6162716365626f3dU,
  0x676a6b65685d685cU, 0xa360626b68616566U, 0x68655e6066636863U, 0x767167c26a646863U,
  0x6b616d6c6b64725cU, 0x7f6b6265696a6a70U, 0x656069736663252bU, 0x6e635f7a7b705a6eU,
  0x6d5f656a62636666U, 0x5170726968606265U, 0x6e6d645b676c615bU, 0x7565754f6367636aU,
  0x5f6e6c6a5f586199U, 0x6e526a655c7b686cU, 0x706c6c6e5b717064U, 0x4f5c736b65567669U,
  0x686b6c71696a536aU, 0x626f716060686563U, 0x605d6e5c6372736fU, 0x6669686d6e667662U,
  0x71686b706767605bU, 0x7b5d5f6b5e6f7066U, 0x696a626f606d686bU, 0x645e687b59607e70U,
  0x756a706453676368U, 0x636a605b64606560U, 0x647454585d686163U, 0x6058806672695d68U,
  0x5b5b6a685c4d5b4cU, 0x7573626d617f766cU, 0x7479616f60725362U, 0x5f696e42615d7662U,
  0x626966666699467aU, 0x5a6d754e5e6e7663U, 0x65606a406174705bU, 0x5d676b6d776e796eU,
  0x655e6c6f6a5c6065U, 0x57555761766d6766U, 0x6f61605a62536065U, 0x62596c606b657b67U,
  0x6b67656d705e7168U, 0x5e5a6968696a606eU, 0x74637a6b685d6f69U, 0x7372615d625a636bU,
  0x6c676f7688726960U, 0x6c606964565a5e69U, 0x636c616d7e646873U, 0x6866605d6e5d7c63U,
  0x785e84688565796fU, 0x6b74627d97696b6bU, 0x6b68676b626a7365U, 0x696e7864705c7a65U,
  0x6b6b636d67696a69U, 0x7a7a8a605b62676cU, 0x71607b62645f616bU, 0x656f60645264696aU,
  0x6667676266686c69U, 0x696668646b6c5f6bU, 0x67676c6a6a656768U, 0x686d6b6869626465U,
  0x666d68686c6c686bU, 0x69696a68696b6b67U, 0x6569675e6d6c7568U, 0x6a6869656b67676aU,
  0x6a67646969766c67U, 0x6b666d736a6c6b6dU, 0x6a70686961666a69U, 0x68666b6c68656a67U,
  0x696969676b6a626aU, 0x686b6b674c696c65U, 0x696069656b68696cU, 0x636b626b77676666U,
  0x6a636765626b686aU, 0x6869645e61676367U, 0x676b6c6d64646965U, 0x6b6c6c6365685d69U,
  0x67656767696e6367U, 0x66666b676b696d6fU, 0x666e6a64696a7366U, 0x646b69656664665dU,
  0x666b6269676f6965U, 0x676865716c686b69U, 0x666e70696a696567U, 0x616b636b64696969U,
  0x6a68666567676f66U, 0x6964646853646a62U, 0x655e6663686a6b69U, 0x6b66666870656d6cU,
  0x8870646e6e626c65U, 0x606764726266776fU, 0x686e626871566663U, 0x7174666f686d7a6bU,
  0x6f78666869726f6aU, 0x6b6a636565715d5bU, 0x6a86636c5f416d5aU, 0x69666f626b5f7066U,
  0x6e6a726a685e7065U, 0x6e6670626070596eU, 0x736b6d6a747e606dU, 0x646c6d71636c6c71U,
  0x6b636c6b66737a66U, 0x8f666c726e647971U, 0x6b74634f6a78677aU, 0x5069566c6a6a775fU,
  0x56515c6c56676a62U, 0x506a716769516956U, 0x5d686f5c7053446bU, 0x677b5d6a6c6c6457U,
  0x73626d6159897271U, 0x576b6c5b83616969U, 0x65636d776e596e46U, 0x70696a6f5b6b6175U,
  0x626e616e65627767U, 0x6a7b636464635d72U, 0x6c5e616761645f69U, 0x685667725e695360U,
  0x745a62676f726a71U, 0x6f78676b5e6a6c5aU, 0x706579666c5f6c7dU, 0x646d3772724d846bU,
  0x6b725c677a576c67U, 0x68736c666a606065U, 0x645663746b615371U, 0x65765b676f645f5fU,
  0x6d6269676f846872U, 0x6173655a60666b69U, 0x51726777676d6660U, 0x6b63595e6768745fU,
  0x6c59736a6981886eU, 0x6d6b7468606a586fU, 0x766b687962696763U, 0x655774684d696c53U,
  0x71625f7364625f74U, 0x626c726e6e696866U, 0x76576e6b74615e6eU, 0x716b647171616d5bU,
  0x70666a6d5d5f6b66U, 0x6765615c6a65716cU, 0x67635d6470666772U, 0x60716f6c66676367U,
  0x68636468626a7872U, 0x6a6966686c6a6768U, 0x6262666e6764726bU, 0x6f6d605f696d6879U,
  0x6464706a6aa86b60U, 0x69726c5c5c69686eU, 0x72685d646e726e68U, 0x6b686b6968696167U,
  0x6d686a6b686c726bU, 0x5c6a696e23606a6fU, 0x7171694a6d6c6368U, 0x6d6f616e67725f65U,
  0x6161786368626a74U, 0x6c6e7269646e6468U, 0x834a7f707c75624dU, 0x5a5c6d6a6b4e643aU,
  0x846f6a906854525eU, 0x6b6a796f5f6d615bU, 0x9471656e59746771U, 0x5e64625f71716b66U,
  0x6a6067696161726dU, 0x86887778547b5a68U, 0x625f626d66647a65U, 0x699d645c5a506861U,
  0x6d7074647c85635fU, 0x61617e6469657b67U, 0x5e6781638e53695bU, 0x69504b84555e5456U,
  0x70436f62623e6a6aU, 0x7e666b6668685c74U, 0x6e68626f666a6069U, 0x6f6f6671665f6166U,
  0x6a67516d6663656aU, 0x796360746a786d6aU, 0x686b6762646c5f6bU, 0x6c66666068685964U,
  0x6277686c5f6b6164U, 0x677e5f64646a546aU, 0x6467675b5d69676fU, 0x696c6f686a5f7470U,
  0x6a69625f66676a68U, 0x6566696966666e62U, 0x55626d62655f6571U, 0x656b8b715e635356U,
  0x5e6d6c6a6d6d6570U, 0x8c6865636b646664U, 0x656e616060606869U, 0x6264726e676d7266U,
  0x6b6a6d626377676cU, 0x5b657b69885e7261U, 0x695e6f5065615e65U, 0x6e7372676369586fU,
  0x5e676066655a7069U, 0x6281746b63798661U, 0x5f6b6a6367566373U, 0x6768636d6369615fU,
  0x6867536562656966U, 0x617468635a67665fU, 0x6a71747a6b676c64U, 0x51666b657b546961U,
  0x6f60776b6f68696eU, 0x6869696865746263U, 0x69596a6e70636c5bU, 0x656b6c6764646960U,
  0x6c656372626a5e63U, 0x6d6b72506d69686eU, 0x7766676b6a6f6b65U, 0x69686968626d6c66U,
  0x66696466696b6a67U, 0x6f6d676d61696a68U, 0x6b6061666d696966U, 0x686865667d6d6b68U,
  0x6a607667616f6c6aU, 0x6a666d686c676c69U, 0x566c6e626f696c67U, 0x6a5d636d666a6d65U,
  0x66716a6567696a64U, 0x6c6869676c6b6566U, 0x62706863636a686dU, 0x6a6b68676676676dU,
  0x666b6c6a66666e68U, 0x60656a6a6a6b6c6bU, 0x5d6d656c62696869U, 0x6e6869696a666b66U,
  0x6e645f666d6d6368U, 0x6564666669646a69U, 0x636c656c67696768U, 0x685b666b5a556665U,
  0x63666c6772666962U, 0x6a6f686567696369U, 0x7563636b676c676eU, 0x6b6e646b6b666f6aU,
  0x6663685a5f666564U, 0x6167515d82644e65U, 0x696b706b696c7266U, 0x6b6a616574686066U,
  0x66686e696869656eU, 0x6869656565746394U, 0x6b6d6a6e674b696bU, 0x6a6a6c6768686a68U,
  0x6a6e5e686a75685dU, 0x666c676a6d646769U, 0x6369606861696368U, 0x6d6868626667676dU,
  0x6b696a686a695861U, 0x7966686a74616965U, 0x687c6766686f623bU, 0x65616866636b796dU,
  0x656b6e6d71626465U, 0x68646563816b6867U, 0x6564656a6e676567U, 0x64756b6a60674764U,
  0x685d63676d666969U, 0x6b656c6c6d63af4bU, 0x646163646a856167U, 0x656c7a586c6b67a2U,
  0x6666766a6b6a6f63U, 0x8e6e6a6966606a67U, 0x696a77615f5e6a63U, 0x69646c4264686c60U,
  0x6766676965636372U, 0x5a5e68656d686568U, 0x6e6368666c596f58U, 0x6ea3726765666d65U,
  0x6171656d67696c68U, 0x5f6769605d677658U, 0x66696a5c606e6a67U, 0x6564636b6c686e68U,
  0x6c6b625e6c646765U, 0x626769676c6e696bU, 0x696d5d6e5b696965U, 0x696a67666d5f6870U,
  0x6e6360695d71606cU, 0x636e6a625d6c686cU, 0x5b66706e6b705c6bU, 0x6a6b625f676d5d63U,
  0x676d7169666b635bU, 0x68636e606a716968U, 0x7369636d67686a68U, 0x736a59676b6d766eU,
  0x7a7f6868686b686bU, 0x7365666778726476U, 0x68656a696a636967U, 0x676b76605e61636fU,
  0x625c646771696967U, 0x72697565606b6b60U, 0x6477645f68746767U, 0x62645b6375626b62U,
  0x705f7563697e676cU, 0x6a596a6465687b63U, 0x6d65636765686966U, 0x676b766b70636e65U,
  0x6a6b6e716965656bU, 0x716b6f645d67646bU, 0x5f586a66646b6369U, 0x64666c645f6c4858U,
  0x5d556360696b4e65U, 0x5a68646a63636b6eU, 0x6461686b78677566U, 0x5e696c4c62636862U,
  0x5965616f42636568U, 0x61656d6b7d7d6161U, 0x6c75726a7e6e727eU, 0x5c67626759787c63U,
  0x59835f586d6d646fU, 0x586b685e625b6769U, 0x77556a5f5f6b5f53U, 0x665f6a6b6a65736bU,
  0x65546c6370566b7aU, 0x6d6b4f7a71657568U, 0x636970646774685fU, 0x805b5c7066747453U,
  0x616369595c69546dU, 0x685f68619266656dU, 0x65676471626c6659U, 0x6771646c5366605bU,
  0x6b5f606466676a61U, 0x65686d6b5e4f795aU, 0x63616c5b5f7d6c6cU, 0x696e6a676a666769U,
  0x6667646d65646b85U, 0x5f6072635f737171U, 0x56666d715b816d6eU, 0x665f647269676561U,
  0x65676969635d756bU, 0x706d64696c736c6aU, 0x6c6b665a6f6d6f7bU, 0x61686562645a4c63U,
  0x6864686967667c64U, 0x6b6b696a64666b6bU, 0x6b6e745c5c5f6772U, 0x71646378666e6768U,
  0x70686b6d7e717066U, 0x63706b68695f6468U, 0x6e64676d5c676d69U, 0x776b686b775f6b69U,
  0x786b666879666767U, 0x71685e7764656966U, 0x598c6b6d6a696b6aU, 0x676a6266716a6376U,
  0x6963686773776761U, 0x6e65795f616a6f65U, 0x656b6564756b6e63U, 0x66716b626a6a6363U,
  0x7764686d786a6669U, 0x566962705e636965U, 0x6b5d635762666068U, 0x6870716b68676c6aU,
  0x6762656661736560U, 0x626b6e706b706f70U, 0x576967635d695e68U, 0x676a676664656669U,
  0x665f716a6b6e6368U, 0x6473685a5a606c63U, 0x6560715e726c6e67U, 0x6a6d626764696565U,
  0x6e66676d64677564U, 0x695a5b6d876b6e65U, 0x6f725859665a6b63U, 0x7367646d625b775dU,
  0x6c7167636b6c556cU, 0x646a704b8464606dU, 0x6968666164616461U, 0x666d666757615c64U,
  0x6a765e69656a6b63U, 0x6a6d6a696c55845fU, 0x6977656165936966U, 0x656d5c4b6a65676eU,
  0x67686367697d6947U, 0x646c706362676d7dU, 0x6560775c71656c65U, 0x605f6c6c6c616e60U,
  0x69656a7168526b6fU, 0x4e65676651705d66U, 0x707e6a5e6b5b8456U, 0x6e68646658606467U,
  0x7569677245636770U, 0x645f67646d665371U, 0x655c6f675f56685bU, 0x6a83bc5e5f5e5a5fU,
  0x5a6352677878564dU, 0x585e6d6653776c68U, 0x5b69776d65615c6aU, 0x636979815f5f7872U,
  0x6c68706d66657f61U, 0x5c6f68676d6e665fU, 0x555f6b7f5d7e737eU, 0x6a586460625e6d51U,
  0x6b6a6d6e64665958U, 0x6c5666695274706aU, 0x66625d5a6457706cU, 0x79615e6c825e6b5bU,
  0x6061676a6d686d6cU, 0x606d606c6e656b64U, 0x676a6a68696e6669U, 0x686c69716c6f6f66U,
  0x716e636073616a60U, 0x6168666b69716769U, 0x6b646e6f6467705eU, 0x70646b6666666c6eU,
  0x6b6f6f6d646f6469U, 0x706b6e6b67656166U, 0x6c6d686b6b6c716eU, 0x686365686a726a6bU,
  0x626669686770686cU, 0x6b676e6c65686160U, 0x5d6967716e6b686dU, 0x646a72645b636c69U,
  0x535c696360636a70U, 0x576b736468606a61U, 0x666b6269646a6070U, 0x6b715f775d5f7564U,
  0x706d61666b61686aU, 0x6468656c6e5e5f66U, 0x696a6d586e626540U, 0x6f68675d6b6d6a67U,
  0x697b7c6d65626861U, 0x68927b6863846968U, 0x6c686e656b6f556bU, 0x63656d635f646770U,
  0x68686d6a66626966U, 0x6b6a70737166606fU, 0x7a6f6f686a4b6d5fU, 0x2971507587659671U,
  0x6765695466696967U, 0x666a6f57616a6162U, 0x6b69666c64696a71U, 0x676770666e68656aU,
  0x7265676a6a686067U, 0x6a6966696a676d63U, 0x6a5f6d64666c686aU, 0x646b666967626a69U,
  0x6869666a6b696879U, 0x676b6767696c676fU, 0x75686c6878646b6bU, 0x5d67676867686669U,
  0x68686a66675e6d5fU, 0x7865696a64746a67U, 0x6869666568607665U, 0x6c6c6c666a656968U,
  0x626a656a685e6270U, 0x5e75686465676a63U, 0x696d666e74706971U, 0x6969636468646969U,
  0x6f67696365667464U, 0x6473636a62616667U, 0x6c6b706b696b6062U, 0x6875686e647a6868U,
  0x65636468636d676aU, 0x68696a6a6b696167U, 0x696e666b68676c69U, 0x6963636761646a6bU,
  0x6a656c676468696aU, 0x62726d7b67677268U, 0x6d69756773616567U, 0x696c696963676261U,
  0x666a6b6b666d6462U, 0x60616b655d6a715bU, 0x6969817e7f606a53U, 0x5d6e656b6b64696eU,
  0x8a6b6e6a68695567U, 0x72685c6464646366U, 0x606d76616f68636bU, 0x5b68676270816165U,
  0x6a6d6d7469635f6dU, 0x82726c7a5563756bU, 0x715d696367696572U, 0x6a6b71637464706bU,
  0x676d6a675c7f6471U, 0x635a757867686f66U, 0x6469845f87696162U, 0x645b685d5c676174U,
  0x66666a7165666368U, 0x62676e907366526cU, 0x676a67665c64656cU, 0x696a6d6686667c6aU,
  0x633a6d6b686c5f61U, 0x6a6d67676c63655eU, 0x68546866687a626cU, 0x666c78566865666bU,
  0x68686a696b876778U, 0x686c6b6864646955U, 0x64676662626d6a66U, 0x72686a6465636867U,
  0x6a6b686a69656565U, 0x796668694b686967U, 0x6a71685b68605862U, 0x6b65696266616667U,
  0x6d6b666c65716167U, 0x7267686a606b696aU, 0x6f69667c7b666866U, 0x67696b63696b6a66U,
  0x63686f725f6d6966U, 0x6f6d6c6567636769U, 0x686170737f686a69U, 0x656f6a66687f6f68U,
  0x65626d6675696b65U, 0x656468646d657165U, 0x7a646a686d636866U, 0x69647369706a7869U,
  0x6d655e6669656875U, 0x6d645d7966686c66U, 0x626b75616a636c65U, 0x6a666b60636c6d67U,
  0x69655f5c72546a70U, 0x71645f6b615d6b70U, 0x696364796d785e6aU, 0x617054656f59665cU,
  0x646c606868546d3eU, 0x737a675c4c6a6066U, 0x616d6355696a615eU, 0x6465605a70687166U,
  0x6b57625f657b5c69U, 0x6b747a636662896eU, 0x745e636d6a6d6e60U, 0x675d6e6b6d606964U,
  0x5c64686a67675d78U, 0x6d68655d6a68586cU, 0x675f706a5f6f6969U, 0x676a56627b646660U,
  0x695a4d6066556466U, 0x67655f656c596278U, 0x666e616967686572U, 0x69746b696668626bU,
  0x5a615c5563656d73U, 0x73675170636b6a6eU, 0x51666e656a6a6869U, 0x6d6b6564646a6267U,
  0x6370616579755a63U, 0x5f6753616b646d68U, 0x6969626661676d67U, 0x675c716b5d6f706dU,
  0x6468795f725a686cU, 0x6d6c5f6e65656367U, 0x596266695f6e6576U, 0x656f76396d697356U,
  0x6063536c6166674eU, 0x6b5d626864776a6bU, 0x6b676d636653656cU, 0x6e6f616567636c6eU,
  0x6a686365608a6d62U, 0x85694a79735d6a6eU, 0x686d726d61626c5eU, 0x69686f6a446a7c64U,
  0x7e60726765747b69U, 0x645b56676c657665U, 0x68696b6a696b646aU, 0x67534f6b6464666bU,
  0x65716f5675676b61U, 0x74646e6c64666169U, 0x646669696d6d6a68U, 0x5e6d5e664b687465U,
  0x665b646565646867U, 0x5a696b66635c6a6cU, 0x666b6867696c8669U, 0x6975676b676c6869U,
  0x6a6663636a676767U, 0x69666d676a796765U, 0x6c726e736a6e6f8dU, 0x6961696768686967U,
  0x6b73716a636b6969U, 0x695b6d6766716b66U, 0x6b696b6d6a69656aU, 0x67696a6c6a6e6866U,
  0x6b696f686868616aU, 0x656567696e666b67U, 0x646c666866566a62U, 0x50695e676b826a6fU,
  0x666c687169686468U, 0x6765545d76636e64U, 0x6463635f64625e63U, 0x676c6a6770625665U,
  0x696d5c69686b6671U, 0x69676b6a6b5e8263U, 0x6566665e64996c66U, 0x5f666a656467685dU,
  0x66656266695f6374U, 0x676a6463646b6a71U, 0x6c64525c665e6c63U, 0x5c6567866d636c64U,
  0x686564696a647767U, 0x6e646862705e6666U, 0x6e70657562664e4bU, 0x726b62726f5f6563U,
  0x84736a6084736a68U, 0x716d61555f656165U, 0x6668866161536663U, 0x6b457f6a6d676d68U,
  0x606e6c676e6e5763U, 0x61686e697b6d6e62U, 0x676d5d657e675f67U, 0x7c69746c64736071U,
  0x6e666e63666b636bU, 0x63785d6c905d6f56U, 0x67546557727f6c63U, 0x65696b6a6b696d6eU,
  0x6e625e6a6f5d6164U, 0x5c726a6067616661U, 0x5c70766a63645c5eU, 0x536369654f68726bU,
  0x616867606a695d6aU, 0x6c63885d9c695e69U, 0x67655c605e5d635dU, 0x696d716a48657068U,
  0x666769666c6c6268U, 0x63666b626e58495bU, 0x625a6a656c7c6769U, 0x6179735f656a6963U,
  0x67656a6969646c6dU, 0x776a66665e6c705aU, 0x526285606c58706cU, 0x5d6770a76a657266U,
  0x6369676a66535c5aU, 0x6d5f676961626468U, 0x657b5f63675c716dU, 0x735d63626c625e67U,
  0x636b5d616a756c68U, 0x82715f685e526f5fU, 0x667b6d59676f6a69U, 0x6960646866736b6dU,
  0x726875646b706964U, 0x6470666873756d5dU, 0x8e655aa0686d7b69U, 0x6e7a6a6f636c6e6aU,
  0x6455686a646e6461U, 0x6f6e5e656577616bU, 0x6f686a6b5f694166U, 0x6c6764666d755553U,
  0x6e6275606b6f6969U, 0x706d6c6b6b6c705dU, 0x706a666971716d65U, 0x88666a555380677bU,
  0x6a6467596e677663U, 0x66635f883e647e69U, 0x6a65626a6c5f6b7dU, 0x6d8f756c71676763U,
  0x6c4a5b6b686e606dU, 0x69656e676a855e5fU, 0x61656d6b6b44626fU, 0x6970685e6668706cU,
  0x696d7a696973655dU, 0x5d766f605d676f4cU, 0x7d6d5d6a595b6a6cU, 0x556969666865695eU,
  0x6d68666a68716a5eU, 0x6064696c7063716cU, 0x63566b666d5a7182U, 0x696f64707666826fU,
  0x61646b646e5b5e6bU, 0x746e5f6970516671U, 0x695d6f6e7d686259U, 0x626f6e6164716a55U,
  0x69665b6c574f5963U, 0x7e67826b676f6770U, 0x655c6d716d6b6f65U, 0x606b6963667c5e65U,
  0x5e68556160704c64U, 0x6f6952675c6a6762U, 0x70596571616a6f64U, 0x65627d5e605b726eU,
  0x585b6f696a6a6c70U, 0x6e61667369626c65U, 0x6c6278677069676eU, 0x6859627b62618357U,
  0x616e655464636d65U, 0x676670554e665e65U, 0x6b686d60706c626bU, 0x6468726851645b65U,
  0x6750746b6b666866U, 0x6a6d69657b686773U, 0x6a5d696b6e865f6bU, 0x6f725d5c7169686bU,
  0x716b606b71856b67U, 0x6d79726165656a5aU, 0x6e5c566161666969U, 0x556470766f656e6cU,
  0x646f6e706a6c7069U, 0x39676b646d5f6968U, 0x6a5b6a6664586164U, 0x6f6e68655f657d62U,
  0x6369664d676c5c63U, 0x666666536d60536bU, 0x656a6464675d5f61U, 0x6c6c726b4c645d65U,
  0x6d516969646e656bU, 0x666b69676f5d855cU, 0x686c705a606d716bU, 0x676d6160656a698fU,
  0x67676f6d69726484U, 0x636f6b5a5d6c6765U, 0x615a465a52696a68U, 0x576967516b646862U,
  0x696465696960586fU, 0x726b68686f757166U, 0x6a56696665558e71U, 0x6a60606b725a6f6cU,
  0x607f6b5e626b6a65U, 0x566a616b605b6051U, 0x6b6364636a8e6365U, 0x63746d6568645e64U,
  0x67676f6378546766U, 0x5f675c6a64796664U, 0x627a6f616d736e64U, 0x636b666573707960U,
  0x6562626965704a6eU, 0x6a6b8663695c6268U, 0x6c61656362677265U, 0x646557635e62665bU,
  0x638b6a6b67695e69U, 0x70656d7167696563U, 0x6f5867666477656aU, 0x5364786768685f70U,
  0x5f656f6145616c6dU, 0x6a5b5c686a61666bU, 0x61646d62645c5e62U, 0x667ea15c6f636959U,
  0x577052646c7a5b47U, 0x646361705b6f6c63U, 0x63816b5d605f7362U, 0x626972765f627666U,
  0x65676a6765667c56U, 0x625c6f6a6a6a5a6dU, 0x64657084665e6d6eU, 0x705b666d5a686e5aU,
  0x66627a66666a5e5fU, 0x54645f60736f656cU, 0x6465606661686761U, 0x696266657b5a6e56U,
  0x626c665b5f655661U, 0x666b685849626e71U, 0x62675b6d5a615e50U, 0x657a706b6b687563U,
  0x657a60666f69746dU, 0x6e6f656554776a7aU, 0x64766b69726d6665U, 0x646c625e60747474U,
  0x6168866e67766458U, 0x5d63666565676776U, 0x5e6c48665f626968U, 0x6e646e8972686b60U,
  0x66626a6d6e637864U, 0x80616866766e5568U, 0x6c66627269669c56U, 0x7a655f7584655867U,
  0x6e67676265727564U, 0x7067656765696967U, 0x6669696c6c66676eU, 0x636d6c6266656a64U,
  0x676d64666b66716bU, 0x6a646c697067686bU, 0x6b6e6b626b736b67U, 0x6a70686c6a6c666bU,
  0x6e6f606964736b68U, 0x67706e6d6a676c69U, 0x6c6f686e646b6164U, 0x64626a6863686f68U,
  0x62695e6967655f6bU, 0x6f6a6e686e626c65U, 0x646570636b5f6c65U, 0x716b6c66616d7265U,
  0x566d6b7282636864U, 0x7064656947645e6aU, 0x6959687667636f64U, 0x69694e554c6a5e66U,
  0x657574686c6d6382U, 0x6b586a666e6c5382U, 0x5a596c6e684f7a69U, 0x5f6d698066676661U,
  0x6763706e6a5a6d6dU, 0x657779756e6f645dU, 0x6b74676967516666U, 0x68666c64646d626cU,
  0x6a69636c6868715aU, 0x84706d6c55657362U, 0x7358657e6f616671U, 0x5c676b6c5d6b7163U,
  0x746c5a5e735a7057U, 0x4f6a616654576366U, 0x7058775e62656868U, 0x797450585e6b705fU,
  0x636b626663756552U, 0x69636f5c87796764U, 0x5b646a7e687c5b71U, 0x68646a8771693e77U,
  0x6c61706a6456726fU, 0x675957726a4f615aU, 0x69665d816059605cU, 0x67696a7a5d66695fU,
  0x727270666d616063U, 0x67746f6352606d69U, 0x5e636656697b746cU, 0x5d69686d4971616cU,
  0x5a6b675b76616b67U, 0x5e6e706668695a6eU, 0x6165626d644e5a6aU, 0x64746165656b4d6cU,
  0x5a5c60646f7c6076U, 0x6370656c69567272U, 0x60566f835d57426bU, 0x686c6b505a686d68U,
  0x665e736b63a0786dU, 0x626a736c6967605eU, 0x646a5a7660706366U, 0x5b656a6a6267655dU,
  0x6b69697265675a61U, 0x825e606465635d6aU, 0x55495f656d605e6bU, 0x6668596d70604d5fU,
  0x6963688265666969U, 0x656b64677a666b67U, 0x6665626b656a6860U, 0x687165635967556aU,
  0x6d906767666b7168U, 0x6a65656969686460U, 0x6553635c6e6c7e69U, 0x6068586b66646852U,
  0x66696e6c684d666dU, 0x6d676c6f62696571U, 0x616c836a4f626964U, 0x626c68666b666f69U,
  0x686b6a676b696e6bU, 0x9b6a696192747267U, 0x6762686e68737a74U, 0x5e64636d6b687167U,
  0x6c6161697d606957U, 0x5a625f7476606871U, 0x70626b6d68805469U, 0x6b93806669636861U,
  0x656d626c6b636a61U, 0x6365685b55636c6bU, 0x6771665a6c706b71U, 0x6663606766636566U,
  0x6462786c66716d6eU, 0x69496c6767476868U, 0x646f6281665f636dU, 0x62655e675f5e6455U,
  0x6b69695e636b6165U, 0x716c636663646c66U, 0x5b606b666a60696dU, 0x6f6a5c67525f5375U,
  0x585a6c666f726a5cU, 0x506371686b705d65U, 0x676d6d696c61506aU, 0x77775a7563686270U,
  0x6a62576d6879665eU, 0x676c6c706c716c63U, 0x7462705f6f695f57U, 0x6f6e66646568676dU,
  0x6f8769716e6c6c66U, 0x685d6f676d41626cU, 0x6b6d616c64666f73U, 0x6f77656d71616f5fU,
  0x6a6e736b6c6a546eU, 0x6d636e6b676d6e5aU, 0x6a5f655e6553696fU, 0xad6c576f76466985U,
  0xffffed12ffffe33bU, 0x924000018fcU, 0xeddfffffc00U, 0x4cf00001d20U,
  0xffffe40affffe7bdU, 0xe6a00000729U, 0x5c5ffffe95dU, 0xffffd10efffff668U,
  0xffffea8c00001039U, 0xfb000001224U, 0x2177fffff821U, 0x89d00000d73U,
  0xeeefffff95cU, 0xfffff79efffff05dU, 0xfffff0ebffffd695U, 0x3fcffffeb11U,
  0xe5400000d5bU, 0xffffed38000007b5U, 0xfffff68bfffffd53U, 0x251fffffc84U,
  0xcf800000ce1U, 0x2932ffffdc8cU, 0xfffff807ffffe604U, 0xffffdae100000fa0U,
  0xfffff058ffffe425U, 0xfffffd4800000bafU, 0x3002fffff96dU, 0xfffff83dfffffa01U,
  0xffffebeafffff998U, 0xfffff8a2ffffd956U, 0xffffefd200001626U, 0x1263fffffa0fU,
  0xb9dfffff323U, 0xffffbbc60000041eU, 0xffffeaf1ffffed37U, 0x10f700000534U,
  0x36f4000004acU, 0xffffef82000039d5U, 0xfffff12b000031a1U, 0x1c0900000f29U,
  0xfffffa00ffffd671U, 0x56fffffc9e3U, 0x1fb7ffffe9a7U, 0x155ffffee84U,
  0x14180000056bU, 0x7eafffff91bU, 0xfffff13200000ad3U, 0x70200000865U,
  0x157a000012e8U, 0xa64ffffe3bbU, 0xb94fffff9c1U, 0x291900001578U,
  0xfffffd9200000754U, 0x2b5900002ac9U, 0x3fffffef93U, 0x1851000002ceU,
  0xffffc75100000342U, 0x9e4ffffc994U, 0xfffffee8ffffffe4U, 0xffffe95600000363U,
